node {
  name: "global_step"
  op: "Variable"
  attr {
    key: "_output_shapes"
    value {
      list {
        shape {
        }
      }
    }
  }
  attr {
    key: "container"
    value {
      s: ""
    }
  }
  attr {
    key: "dtype"
    value {
      type: DT_INT64
    }
  }
  attr {
    key: "shape"
    value {
      shape {
      }
    }
  }
  attr {
    key: "shared_name"
    value {
      s: ""
    }
  }
}
node {
  name: "global_step/Initializer/zeros"
  op: "Const"
  attr {
    key: "_class"
    value {
      list {
        s: "loc:@global_step"
      }
    }
  }
  attr {
    key: "_output_shapes"
    value {
      list {
        shape {
        }
      }
    }
  }
  attr {
    key: "dtype"
    value {
      type: DT_INT64
    }
  }
  attr {
    key: "value"
    value {
      tensor {
        dtype: DT_INT64
        tensor_shape {
        }
        int64_val: 0
      }
    }
  }
}
node {
  name: "global_step/Assign"
  op: "Assign"
  input: "global_step"
  input: "global_step/Initializer/zeros"
  attr {
    key: "T"
    value {
      type: DT_INT64
    }
  }
  attr {
    key: "_class"
    value {
      list {
        s: "loc:@global_step"
      }
    }
  }
  attr {
    key: "_output_shapes"
    value {
      list {
        shape {
        }
      }
    }
  }
  attr {
    key: "use_locking"
    value {
      b: true
    }
  }
  attr {
    key: "validate_shape"
    value {
      b: true
    }
  }
}
node {
  name: "global_step/read"
  op: "Identity"
  input: "global_step"
  attr {
    key: "T"
    value {
      type: DT_INT64
    }
  }
  attr {
    key: "_class"
    value {
      list {
        s: "loc:@global_step"
      }
    }
  }
  attr {
    key: "_output_shapes"
    value {
      list {
        shape {
        }
      }
    }
  }
}
node {
  name: "Const"
  op: "Const"
  attr {
    key: "_output_shapes"
    value {
      list {
        shape {
          dim {
            size: 1983
          }
        }
      }
    }
  }
  attr {
    key: "dtype"
    value {
      type: DT_FLOAT
    }
  }
  attr {
    key: "value"
    value {
      tensor {
        dtype: DT_FLOAT
        tensor_shape {
          dim {
            size: 1983
          }
        }
        tensor_content: "\000\000\200@\000\000@@\000\000@@\000\000\200@\000\000@@\000\000@@\000\000\000@\000\000@@\000\000\200?\000\000\200@\000\000@@\000\000@@\000\000@@\000\000\240@\000\000@@\000\000\240@\000\000\000@\000\000@@\000\000@@\000\000\300@\000\000\000@\000\000\200@\000\000\000@\000\000\000@\000\000\200@\000\000@@\000\000@@\000\000@@\000\000@@\000\000\240@\000\000\200@\000\000\000\000\000\000\000@\000\000\200@\000\000@@\000\000@@\000\000@@\000\000\000@\000\000\200?\000\000@@\000\000@@\000\000\200@\000\000@@\000\000@@\000\000\000@\000\000@@\000\000\300@\000\000\000@\000\000\200?\000\000\240@\000\000\200@\000\000\200?\000\000\200@\000\000\200@\000\000\340@\000\000\200@\000\000\240@\000\000\000@\000\000\000@\000\000\200@\000\000\000@\000\000@@\000\000\000\000\000\000@@\000\000\200?\000\000\340@\000\000\000@\000\000@@\000\000@@\000\000\240@\000\000\000@\000\000@@\000\000\200@\000\000\200?\000\000\200@\000\000\000@\000\000\240@\000\000\200@\000\000\000\000\000\000\000@\000\000@@\000\000@@\000\000\000@\000\000\000@\000\000\200@\000\000@@\000\000\000\000\000\000\240@\000\000\240@\000\000\200?\000\000\240@\000\000\000@\000\000\000@\000\000\240@\000\000\200@\000\000@@\000\000@@\000\000\200@\000\000@@\000\000\240@\000\000@@\000\000@@\000\000@@\000\000\200@\000\000@@\000\000\300@\000\000\000@\000\000\200@\000\000@@\000\000\000@\000\000\000@\000\000\000@\000\000\000@\000\000\200?\000\000\200@\000\000\000@\000\000\200@\000\000\240@\000\000\000@\000\000\000@\000\000\000@\000\000\200@\000\000\240@\000\000\200@\000\000\240@\000\000\200@\000\000@@\000\000\000@\000\000@@\000\000\000@\000\000\000@\000\000@@\000\000@@\000\000\200@\000\000\000\000\000\000\000@\000\000@@\000\000\200@\000\000\000@\000\000\000\000\000\000\000\000\000\000@@\000\000\200@\000\000\000@\000\000@@\000\000\200@\000\000\200@\000\000@@\000\000@@\000\000\000\000\000\000\000@\000\000@@\000\000\200@\000\000@@\000\000\200@\000\000\200@\000\000\200@\000\000@@\000\000@@\000\000\200@\000\000\200@\000\000@@\000\000\000@\000\000@@\000\000\200@\000\000@@\000\000\240@\000\000\300@\000\000\000@\000\000@@\000\000\200?\000\000\200@\000\000\200@\000\000\200@\000\000\000@\000\000\000@\000\000@@\000\000\200@\000\000\200?\000\000\000@\000\000\200@\000\000\000@\000\000\000@\000\000\200@\000\000\000@\000\000\000@\000\000@@\000\000\000@\000\000@@\000\000\300@\000\000@@\000\000\200@\000\000\240@\000\000\000\000\000\000@@\000\000\000@\000\000@@\000\000\200@\000\000@@\000\000@@\000\000@@\000\000@@\000\000\200@\000\000\000@\000\000\200@\000\000\000\000\000\000\000@\000\000@@\000\000\000@\000\000@@\000\000\200@\000\000@@\000\000@@\000\000\200@\000\000\000@\000\000\200@\000\000\000@\000\000\200@\000\000\000@\000\000\200@\000\000\200?\000\000@@\000\000@@\000\000\200@\000\000@@\000\000@@\000\000\000@\000\000\000@\000\000@@\000\000\000@\000\000@@\000\000\000\000\000\000\000@\000\000\000\000\000\000@@\000\000@@\000\000\240@\000\000@@\000\000\000@\000\000@@\000\000@@\000\000\240@\000\000@@\000\000\200@\000\000\200?\000\000\000@\000\000\200?\000\000\200@\000\000\000@\000\000\200@\000\000\340@\000\000@@\000\000\200@\000\000@@\000\000\240@\000\000\240@\000\000\240@\000\000\000\000\000\000\000\000\000\000\000\000\000\000\200@\000\000\000@\000\000@@\000\000@@\000\000@@\000\000@@\000\000\000@\000\000\240@\000\000\000@\000\000@@\000\000@@\000\000@@\000\000@@\000\000\200@\000\000\200?\000\000\200@\000\000\000@\000\000\200@\000\000\000@\000\000\300@\000\000\000@\000\000\200@\000\000\000@\000\000 A\000\000\000@\000\000\000@\000\000@@\000\000\240@\000\000\340@\000\000\200?\000\000@@\000\000\000\000\000\000\240@\000\000\000\000\000\000\200@\000\000@@\000\000\200?\000\000@@\000\000\240@\000\000\000@\000\000\200?\000\000\200@\000\000@@\000\000\200?\000\000\200?\000\000@@\000\000\200@\000\000\000@\000\000@@\000\000@@\000\000@@\000\000\200@\000\000@@\000\000\240@\000\000\000@\000\000@@\000\000@@\000\000\240@\000\000@@\000\000\020A\000\000\200?\000\000\000@\000\000\240@\000\000@@\000\000\000@\000\000@@\000\000\200?\000\000\200@\000\000\200@\000\000\200@\000\000@@\000\000@@\000\000\200@\000\000\200@\000\000@A\000\000\000@\000\000@@\000\000@@\000\000`A\000\000\000@\000\000\200@\000\000\240@\000\000\200@\000\000@@\000\000@@\000\000\000@\000\000@@\000\000\240@\000\000\240@\000\000@@\000\000\240@\000\000\000@\000\000\300@\000\000\240@\000\000\200@\000\000@@\000\000@@\000\000\200@\000\000\200@\000\000\200@\000\000\000@\000\000\200@\000\000@@\000\000@@\000\000\000@\000\000\020A\000\000\000@\000\000\200?\000\000\000@\000\000\000@\000\000@@\000\000@@\000\000\200?\000\000\240@\000\000@@\000\000\000\000\000\000\200@\000\000@@\000\000\000\000\000\000@@\000\000\200@\000\000@@\000\000\200@\000\000@@\000\000\000@\000\000@@\000\000\240@\000\000@@\000\000\240@\000\000\240@\000\000@@\000\000\000@\000\000\200@\000\000\240@\000\000@@\000\000\340@\000\000\240@\000\000\000@\000\000@@\000\000\020A\000\000\000@\000\000\200?\000\000@@\000\000\200@\000\000@@\000\000@@\000\000\000@\000\000\000@\000\000@@\000\000\200@\000\000\200@\000\000\000@\000\000@@\000\000@@\000\000\200@\000\000\340@\000\000\000A\000\000\200@\000\000\000@\000\000@@\000\000\200@\000\000@@\000\000\000@\000\000\200@\000\000@@\000\000\200@\000\000\000@\000\000\200?\000\000\200?\000\000\000\000\000\000\200@\000\000\300@\000\000@@\000\000\000@\000\000\000@\000\000@@\000\000\200@\000\000@@\000\000\240@\000\000@@\000\000@@\000\000\000\000\000\000\200?\000\000\200@\000\000@@\000\000\000@\000\000@@\000\000@@\000\000\200?\000\000\200@\000\000@@\000\000\200@\000\000@@\000\000\000@\000\000\000\000\000\000\240@\000\000@@\000\000\000@\000\000\200@\000\000\240@\000\000\200@\000\000@@\000\000\300@\000\000\240@\000\000\200?\000\000@@\000\000\000\000\000\000@@\000\000\000\000\000\000\200@\000\000@@\000\000\000@\000\000\200@\000\000\200@\000\000@@\000\000@@\000\000\200@\000\000@@\000\000\240@\000\000\200@\000\000\000@\000\000\000@\000\000\000@\000\000@@\000\000\200@\000\000\000@\000\000\000@\000\000\300@\000\000@@\000\000@@\000\000\000@\000\000@@\000\000\200@\000\000\200@\000\000\000@\000\000\000@\000\000\240@\000\000\300@\000\000\200@\000\000\000\000\000\000@@\000\000\240@\000\000@@\000\000\200@\000\000\200@\000\000@@\000\000@@\000\000\240@\000\000@@\000\000\000@\000\000\000@\000\000\000@\000\000@@\000\000\200@\000\000\000@\000\000\000@\000\000@@\000\000\200@\000\000\200@\000\000\200?\000\000@@\000\000\000@\000\000@@\000\000\200@\000\000@@\000\000\240@\000\000\000\000\000\000\200@\000\000\300@\000\000\000\000\000\000\240@\000\000\200@\000\000\200@\000\000@@\000\000\000@\000\000\200?\000\000@@\000\000\240@\000\000\000@\000\000@@\000\000\000@\000\000\200?\000\000\200@\000\000\340@\000\000\000\000\000\000\200@\000\000\200@\000\000@@\000\000\200@\000\000\200@\000\000@@\000\000\000\000\000\000@@\000\000@@\000\000\000@\000\000@@\000\000\240@\000\000@@\000\000\000@\000\000\200?\000\000\000\000\000\000\000@\000\000\000@\000\000@@\000\000@@\000\000\200@\000\000\200@\000\000\200@\000\000@@\000\000\200@\000\000\000@\000\000@@\000\000@@\000\000\240@\000\000\000@\000\000\200?\000\000\000@\000\000\200@\000\000\000\000\000\000\200@\000\000\200?\000\000@@\000\000\000@\000\000@@\000\000\000@\000\000\200@\000\000\000@\000\000\240@\000\000\300@\000\000\340@\000\000\200@\000\000@@\000\000\000@\000\000\200?\000\000\000@\000\000@@\000\000\240@\000\000\000@\000\000\000@\000\000@@\000\000@@\000\000\000\000\000\000\000\000\000\000\200@\000\000@@\000\000@@\000\000\200@\000\000\000@\000\000@@\000\000\000A\000\000\000@\000\000\000@\000\000@@\000\000\300@\000\000@@\000\000@@\000\000\200@\000\000@@\000\000\000@\000\000\000@\000\000\000\000\000\000@@\000\000\200@\000\000\000A\000\000@@\000\000\200?\000\000\000@\000\000\200@\000\000@@\000\000\000@\000\000\200?\000\000\000\000\000\000@@\000\000@@\000\000\000@\000\000\240@\000\000\200@\000\000@@\000\000\000@\000\000\200@\000\000\000@\000\000\240@\000\000\200@\000\000@@\000\000@@\000\000\200?\000\000\240@\000\000\000@\000\000\000@\000\000@@\000\000\200@\000\000\000@\000\000\240@\000\000@@\000\000@@\000\000@@\000\000@@\000\000\000@\000\000\000@\000\000\200@\000\000@@\000\000@@\000\000@@\000\000\000@\000\000@@\000\000\000@\000\000\000\000\000\000@@\000\000\200@\000\000@@\000\000@@\000\000@@\000\000\000@\000\000\200@\000\000\000\000\000\000\200?\000\000\200@\000\000\000@\000\000\200@\000\000@@\000\000@@\000\000@@\000\000@@\000\000@@\000\000\240@\000\000\200?\000\000\000@\000\000\000@\000\000@@\000\000\200@\000\000\200@\000\000@@\000\000\200?\000\000@@\000\000\200@\000\000@@\000\000\000@\000\000@@\000\000@@\000\000\000@\000\000@@\000\000\200@\000\000\200@\000\000\200@\000\000@@\000\000\000\000\000\000\000@\000\000\000@\000\000\000\000\000\000\200@\000\000@@\000\000@@\000\000\200?\000\000\200@\000\000\000@\000\000\000@\000\000\200@\000\000@@\000\000\000@\000\000\000@\000\000\000@\000\000@@\000\000@@\000\000\200@\000\000@@\000\000\000@\000\000\200?\000\000\000@\000\000\000@\000\000\300@\000\000\200@\000\000@@\000\000\000@\000\000@@\000\000\200@\000\000@@\000\000@@\000\000\000@\000\000@@\000\000@@\000\000\200@\000\000@@\000\000\240@\000\000\000@\000\000\200@\000\000\200?\000\000\000A\000\000\240@\000\000\000@\000\000@@\000\000@@\000\000\200@\000\000\200@\000\000\200@\000\000\200@\000\000\000@\000\000\000@\000\000\200?\000\000\200@\000\000@@\000\000@@\000\000@@\000\000@@\000\000@@\000\000\200?\000\000@@\000\000\240@\000\000\200@\000\000\000@\000\000\000@\000\000\200@\000\000\240@\000\000\000@\000\000\000\000\000\000\000@\000\000@@\000\000@@\000\000@@\000\000@@\000\000\020A\000\000\200@\000\000\000@\000\000\000\000\000\000@@\000\000\300@\000\000@@\000\000\200@\000\000\000@\000\000\000@\000\000@@\000\000@@\000\000@@\000\000\240@\000\000@@\000\000@@\000\000\200?\000\000@@\000\000\000@\000\000\000@\000\000\000@\000\000\200@\000\000\000@\000\000\200?\000\000\000@\000\000@@\000\000\000@\000\000\240@\000\000@@\000\000@@\000\000\240@\000\000\200@\000\000@@\000\000\240@\000\000\200?\000\000@@\000\000\200?\000\000\200@\000\000\000\000\000\000\000@\000\000\200@\000\000\000@\000\000\200@\000\000\000@\000\000@@\000\000\000\000\000\000\000@\000\000\000@\000\000\200@\000\000@@\000\000\200@\000\000@@\000\000\340@\000\000\200@\000\000@@\000\000\200?\000\000@@\000\000@@\000\000\000@\000\000@@\000\000@@\000\000@@\000\000\200@\000\000\200@\000\000\200@\000\000\000\000\000\000@@\000\000\240@\000\000@@\000\000@@\000\000\000@\000\000\000@\000\000\200@\000\000@@\000\000\000@\000\000\000\000\000\000\000@\000\000@@\000\000\000@\000\000\240@\000\000\240@\000\000\000@\000\000@@\000\000\000@\000\000\200@\000\000\240@\000\000\200@\000\000\200?\000\000\200?\000\000\200?\000\000@@\000\000\300@\000\000\200@\000\000@@\000\000\200@\000\000\000@\000\000\200@\000\000\000@\000\000@@\000\000\020A\000\000\200@\000\000@@\000\000@@\000\000\000@\000\000@@\000\000\240@\000\000\000@\000\000@@\000\000\240@\000\000\200?\000\000\000@\000\000@@\000\000\000@\000\000\000@\000\000\200@\000\000@@\000\000\200@\000\000\200@\000\000\000\000\000\000\200@\000\000@@\000\000\200@\000\000\000@\000\000\000@\000\000\200@\000\000\200?\000\000\200?\000\000\200@\000\000\000@\000\000@@\000\000@@\000\000\240@\000\000\200@\000\000\200?\000\000@@\000\000@@\000\000@@\000\000\240@\000\000@@\000\000@@\000\000\240@\000\000\200@\000\000@@\000\000\000@\000\000@@\000\000\240@\000\000\000@\000\000\000@\000\000\200@\000\000\240@\000\000@@\000\000\200?\000\000\240@\000\000\240@\000\000\000@\000\000\240@\000\000@@\000\000\000@\000\000\000\000\000\000\000@\000\000\200@\000\000\200@\000\000\200?\000\000@@\000\000\200@\000\000\200@\000\000@@\000\000@@\000\000@@\000\000\300@\000\000@@\000\000@@\000\000\240@\000\000\000@\000\000@@\000\000\000@\000\000\000@\000\000@@\000\000\200@\000\000\200@\000\000\000\000\000\0000A\000\000\000\000\000\000\000@\000\000@@\000\000\300@\000\000\240@\000\000@@\000\000@@\000\000\300@\000\000@@\000\000\200@\000\000@@\000\000\240@\000\000\200?\000\000\200@\000\000@@\000\000@@\000\000\000@\000\000\020A\000\000\000\000\000\000\200@\000\000\200@\000\000\000@\000\000@@\000\000\240@\000\000\200@\000\000@@\000\000\000@\000\000@@\000\000\200?\000\000@@\000\000\200@\000\000@@\000\000\240@\000\000@@\000\000@@\000\000@@\000\000@@\000\000\200@\000\000\000\000\000\000\200@\000\000@@\000\000\000@\000\000\200?\000\000\200@\000\000@@\000\000\240@\000\000\000@\000\000@@\000\000\200@\000\000\000@\000\000\200@\000\000\200@\000\000@@\000\000@@\000\000@@\000\000\200@\000\000\200@\000\000@@\000\000\200@\000\000@@\000\000\340@\000\000\200?\000\000\000@\000\000\200@\000\000\000@\000\000\240@\000\000@@\000\000@@\000\000\000@\000\000\200@\000\000@@\000\000\000@\000\000\000@\000\000@@\000\000\000@\000\000\300@\000\000@@\000\000@@\000\000\000@\000\000\000A\000\000\200@\000\000\200@\000\000\240@\000\000@@\000\000\000@\000\000@@\000\000\200@\000\000\200@\000\000\000@\000\000\000@\000\000@@\000\000\000\000\000\000\000@\000\000@@\000\000@@\000\000\240@\000\000@@\000\000\200@\000\000\000@\000\000@@\000\000@A\000\000\200@\000\000\000@\000\000\000@\000\000\200@\000\000@@\000\000\200?\000\000\240@\000\000@@\000\000@@\000\000@@\000\000\240@\000\000\000@\000\000\200?\000\000\200@\000\000\240@\000\000\240@\000\000@@\000\000@@\000\000@@\000\000@@\000\000@@\000\000\200@\000\000\240@\000\000\000@\000\000\000@\000\000\200?\000\000@@\000\000\200@\000\000\000@\000\000@@\000\000\200@\000\000\300@\000\000\200@\000\000@@\000\000\240@\000\000@@\000\000\240@\000\000\000@\000\000\000\000\000\000\200?\000\000@@\000\000\240@\000\000\300@\000\000\200?\000\000@@\000\000@@\000\000@@\000\000\000@\000\000\000@\000\000\000@\000\000@@\000\000@@\000\000\200?\000\000@@\000\000\200?\000\000@@\000\000\240@\000\000\000@\000\000\200@\000\000\200@\000\000@@\000\000\000@\000\000@@\000\000\000@\000\000\300@\000\000@@\000\000\200@\000\000\240@\000\000\200@\000\000@@\000\000\200@\000\000\200?\000\000@@\000\000\200@\000\000\200@\000\000\200@\000\000\000@\000\000@@\000\000\200@\000\000\000@\000\000\000\000\000\000@@\000\000\240@\000\000@@\000\000\300@\000\000@@\000\000\200@\000\000\200@\000\000@@\000\000@@\000\000\000@\000\000\000@\000\000@@\000\000@@\000\000\000\000\000\000\000@\000\000\200?\000\000@@\000\000\240@\000\000\000@\000\000@@\000\000\200@\000\000\000@\000\000\000@\000\000\000@\000\000\200@\000\000\000@\000\000@@\000\000\000@\000\000\240@\000\000\200@\000\000\000@\000\000@@\000\000@@\000\000@@\000\000\200@\000\000\000\000\000\000@@\000\000\000@\000\000@@\000\000\200@\000\000@@\000\000\200@\000\000@@\000\000\200@\000\000@@\000\000\300@\000\000\240@\000\000@@\000\000@@\000\000\000\000\000\000\200@\000\000\300@\000\000\200?\000\000@@\000\000\000@\000\000\000@\000\000\000@\000\000\000@\000\000\200?\000\000@@\000\000\200?\000\000@@\000\000\000@\000\000@@\000\000@@\000\000\200@\000\000@@\000\000@@\000\000@@\000\000\200@\000\000@@\000\000\000@\000\000@@\000\000\000@\000\000\000@\000\000\200@\000\000\240@\000\000\240@\000\000\340@\000\000\200@\000\000\000@\000\000\200?\000\000\000@\000\000\000@\000\000@@\000\000\200?\000\000\200@\000\000\240@\000\000\200@\000\000\200@\000\000\000@\000\000@@\000\000\000\000\000\000\240@\000\000@@\000\000\000@\000\000\200@\000\000\000@\000\000\000@\000\000\200@\000\000\000@\000\000\200@\000\000@@\000\000\200@\000\000\240@\000\000@@\000\000\200@\000\000\000@\000\000\000@\000\000@@\000\000\240@\000\000\000@\000\000\200@\000\000@@\000\000\200@\000\000@@\000\000\200@\000\000\240@\000\000\000@\000\000\200@\000\000\200@\000\000@@\000\000\200@\000\000\240@\000\000@@\000\000\200?\000\000\000@\000\000@@\000\000\200@\000\000\000\000\000\000\200@\000\000\240@\000\000\200@\000\000@@\000\000@@\000\000\000@\000\000\200@\000\000\240@\000\000\000@\000\000@@\000\000\000@\000\000@@\000\000\200@\000\000@@\000\000\000\000\000\000\240@\000\000@@\000\000\200@\000\000@@\000\000\200@\000\000\000\000\000\000\000\000\000\000\240@\000\000@@\000\000\200@\000\000\200@\000\000\200@\000\000\000@\000\000\000@\000\000\000@\000\000\200@\000\000\200@\000\000@@\000\000@@\000\000\300@\000\000@@\000\000\240@\000\000\200@\000\000\200@\000\000\200@\000\000\200@\000\000\200@\000\000\000\000\000\000@@\000\000\000@\000\000\200@\000\000\200@\000\000@@\000\000\200?\000\000\200?\000\000\240@\000\000\240@\000\000@@\000\000\240@\000\000\200@\000\000\200@\000\000\000\000\000\000@@\000\000\240@\000\000\200@\000\000@@\000\000@@\000\000@@\000\000\000@\000\000\200@\000\000\000@\000\000@@\000\000\200@\000\000\000@\000\000@@\000\000\000@\000\000\240@\000\000\200@\000\000@@\000\000@@\000\000@@\000\000\000@\000\000\000@\000\000@@\000\000\200@\000\000\200?\000\000\200@\000\000\000@\000\000\240@\000\000@@\000\000\200@\000\000\200@\000\000\000@\000\000@@\000\000\240@\000\000@@\000\000\200@\000\000\240@\000\000\000@\000\000@@\000\000\200@\000\000\000@\000\000@@\000\000\240@\000\000@@\000\000\200@\000\000\200@\000\000@@\000\000\200@\000\000\240@\000\000\000\000\000\000\000@\000\000\000@\000\000@@\000\000\000@\000\000@@\000\000\000@\000\000\000@\000\000\000@\000\000@@\000\000@@\000\000@@\000\000\000@\000\000\200@\000\000\240@\000\000@@\000\000@@\000\000\200?\000\000\000@\000\000\240@\000\000\200@\000\000\000@\000\000\200@\000\000@@\000\000\000@\000\000\240@\000\000\000@\000\000\200@\000\000@@\000\000@@\000\000@@\000\000@@\000\000\240@\000\000\240@\000\000@@\000\000\200@\000\000\200@\000\000\200@\000\000@@\000\000\200@\000\000\240@\000\000\240@\000\000@@\000\000\000\000\000\000@@\000\000@@\000\000@@\000\000\000@\000\000\200@\000\000@@\000\000\000@\000\000\240@\000\000\200@\000\000\200@\000\000\200@\000\000\000@\000\000\200@\000\000\200@\000\000@@\000\000\000@\000\000\000@\000\000\200@\000\000@@\000\000@@\000\000@@\000\000\200@\000\000\000@\000\000\000\000\000\000\200@\000\000\200?\000\000\240@\000\000\000@\000\000@@\000\000\200@\000\000\200?\000\000\000@\000\000\200@\000\000\000@\000\000\000@\000\000\200@\000\000@@\000\000\200@\000\000@@\000\000@@\000\000\200?\000\000\200?\000\000\000@\000\000@@\000\000\200@\000\000\200?\000\000@@\000\000\200@\000\000\200@\000\000@@\000\000@@\000\000@@\000\000\240@\000\000\200@\000\000@@\000\000\200@\000\000@@\000\000\000\000\000\000@@\000\000@A\000\000@@\000\000@@\000\000\200@\000\000\200@\000\000\200@\000\000\020A\000\000\200@\000\000\200@\000\000\000@\000\000\000\000\000\000@@\000\000\000@\000\000\200@\000\000\200@\000\000\000@\000\000\200@\000\000@@\000\000\000@\000\000\000@\000\000@@\000\000\240@\000\000\200@\000\000\000@\000\000\000@\000\000\200?\000\000@@\000\000\000@\000\000@@\000\000\200@\000\000\240@\000\000\200@\000\000\240@\000\000\000@\000\000\000@\000\000\200@\000\000\000\000\000\000@@\000\000\000\000\000\000\000@\000\000\200@\000\000@@\000\000@@\000\000\200@\000\000\200?\000\000@@\000\000\240@\000\000\200?\000\000@@\000\000\240@\000\000@@\000\000@@\000\000@@\000\000\200@\000\000\000@\000\000\200?\000\000\200@\000\000\000\000\000\000\000@\000\000\240@\000\000\000@\000\000@@\000\000\000@\000\000\000@\000\000@@\000\000\240@\000\000\240@\000\000@@\000\000@@\000\000\240@\000\000@@\000\000\200@\000\000\200@\000\000\240@\000\000\000\000\000\000@@\000\000\000\000\000\000\000@\000\000@@\000\000@@\000\000\240@\000\000@@\000\000\000@\000\000\200?\000\000@@\000\000@@\000\000\200?\000\000\200@\000\000@@\000\000\000@\000\000@@\000\000\000@\000\000\000@\000\000\200@\000\000@@\000\000@@\000\000\000@\000\000\200@\000\000@@\000\000@@\000\000@@\000\000\240@\000\000@@\000\000\000@\000\000\000\000\000\000\340@\000\000\200@\000\000\300@\000\000\200@\000\000\240@\000\000\000@\000\000\200@\000\000\020A\000\000\000@\000\000@@\000\000\000@\000\000\000@\000\000\000@\000\000\200@\000\000@@\000\000@@\000\000\200?\000\000\000@\000\000\000A\000\000\200@\000\000\200?\000\000\000@\000\000\200@\000\000\200@\000\000@@\000\000\240@\000\000\000@\000\000\000@\000\000\000@\000\000\200@\000\000\000\000\000\000\200?\000\000\000@\000\000\000@\000\000\000@\000\000@@\000\000\000@\000\000\020A\000\000@@\000\000@@\000\000\000@\000\000\240@\000\000@@\000\000\000@\000\000\200?\000\000@@\000\000\000@\000\000@@\000\000\000@\000\000@@\000\000\000@\000\000@@\000\000\000@\000\000@@\000\000\000A\000\000\200@\000\000@@\000\000@@\000\000\000@\000\000\000@\000\000\000@\000\000\000\000\000\000\200?\000\000\240@\000\000\000@\000\000@@\000\000@@\000\000\000\000\000\000\000@\000\000\240@\000\000@@\000\000\240@\000\000@@\000\000\200?\000\000@@\000\000\200@\000\000\240@\000\000\000\000\000\000\240@\000\000@@\000\000\000\000\000\000\200@\000\000\200@\000\000@@\000\000@@\000\000\200@\000\000\240@\000\000\200@\000\000\000@\000\000\200@\000\000\300@\000\000\200@\000\000\200@\000\000@@\000\000\300@\000\000\000@\000\000@@\000\000\000@\000\000\000@\000\000\000@\000\000\200@\000\000\200@\000\000 A\000\000\000@\000\000@@\000\000\000@\000\000\200@\000\000\200@\000\000@@\000\000@@\000\000\200@\000\000\200@\000\000\000@\000\000\000@\000\000\000\000\000\000\200@\000\000@@\000\000\000@\000\000\000\000\000\000@@\000\000@@\000\000@@\000\000\000@\000\000\000\000\000\000@@\000\000\000@\000\000\000\000\000\000\240@\000\000\000@\000\000\000@\000\000\000@\000\000\200@\000\000\200@\000\000@@\000\000\000@\000\000\000@\000\000\200?\000\000\000@\000\000\200@\000\000@@\000\000\200@\000\000\340@\000\000@@\000\000\000\000\000\000\000@\000\000\000@\000\000\200@\000\000\200?\000\000\200@\000\000\000@\000\000\000@\000\000\240@\000\000@@\000\000\200?\000\000\200?\000\000\200?\000\000@@\000\000@@\000\000\000@\000\000\000@\000\000@@\000\000\200?\000\000\200@\000\000@@\000\000\000\000\000\000@@\000\000\000@\000\000\200@\000\000\200@\000\000\200?\000\000\000@\000\000@@\000\000\000@\000\000@@\000\000\000@\000\000\000@\000\000@@\000\000@@\000\000@@\000\000\000\000\000\000\200@\000\000\000@\000\000@@\000\000@@\000\000\200?\000\000\200@\000\000\000@\000\000@@\000\000\240@\000\000\000@\000\000@@\000\000\200@\000\000@@\000\000\200@\000\000\200?\000\000@@\000\000\000@\000\000\200@\000\000\200?\000\000\000@\000\000@@\000\000\240@\000\000@@\000\000@@\000\000\200@\000\000\000@\000\000\200?\000\000\000@\000\000@@\000\000\200@\000\000\200@\000\000\000@\000\000\200@\000\000@@\000\000\200@\000\000\240@\000\000\000@\000\000@@\000\000\000@\000\000@@\000\000\000@\000\000\000\000\000\000\240@\000\000@@\000\000@@\000\000\000\000\000\000\000@\000\000\000@\000\000\000\000\000\000\000@\000\000\300@\000\000@@\000\000\000@\000\000\240@\000\000\000@\000\000@@\000\000\200@\000\000\200@\000\000\000@\000\000@@\000\000\200@\000\000@@\000\000\200@\000\000@@\000\000\200@\000\000@@\000\000\000@\000\000\240@\000\000\200@\000\000\020A\000\000\000@\000\000\000@\000\000\200@\000\000\000\000\000\000@@\000\000@@\000\000\200@\000\000\200@\000\000@@\000\000@@\000\000\240@\000\000@@\000\000\200@\000\000\200@\000\000\200@\000\000@@\000\000\200@\000\000\000@\000\000@@\000\000\000@\000\000\000@\000\000\000@\000\000\200@\000\000\000@\000\000\200@\000\000@@\000\000\200@\000\000\000@\000\000@@\000\000@@\000\000\000@\000\000\000@\000\000\200@\000\000\240@\000\000@@\000\000\200?\000\000\200@\000\000\000@\000\000\000@\000\000\000@\000\000\200@\000\000\200@\000\000\200@\000\000@@\000\000\200@\000\000\000@\000\000\000@\000\000\000@\000\000\000@\000\000\000A\000\000\240@\000\000@@\000\000@@\000\000\200@\000\000\000\000\000\000\240@\000\000\200@\000\000@@\000\000\000\000\000\000\240@\000\000\000@\000\000\000@\000\000\000\000\000\000\200@\000\000@@\000\000\240@\000\000\200@\000\000@@\000\000@@\000\000@@\000\000\200@\000\000\200@\000\000\000@\000\000\000\000\000\000\000@\000\000@@\000\000\200?\000\000@@\000\000\000@\000\000@@\000\000\200?\000\000\240@\000\000\240@\000\000\200@\000\000@@\000\000\300@\000\000\000@\000\000\200@\000\000\000@\000\000\200@\000\000\300@\000\000\000\000\000\000@@\000\000\000@\000\000@@\000\000\000\000\000\000\200@\000\000\240@\000\000\000@\000\000\240@\000\000\200@\000\000@@\000\000\000@\000\000\000@\000\000@@\000\000@@\000\000@@\000\000@@\000\000@@\000\000\200@\000\000\000@\000\000\000\000\000\000\200@\000\000\000@\000\000\200?\000\000@@\000\000\000@\000\000@@\000\000\000@\000\000\200@\000\000\000@\000\000\000@\000\000@@\000\000\200@\000\000@@\000\000@@\000\000\000@\000\000\200@\000\000\240@\000\000\200@\000\000@@\000\000@@\000\000\200@\000\000\240@\000\000@@\000\000@@\000\000\000@\000\000\240@\000\000\240@\000\000\200?\000\000@@\000\000\200?\000\000\000@\000\000\000@\000\000@@\000\000@@\000\000\200@"
      }
    }
  }
}
node {
  name: "Const_1"
  op: "Const"
  attr {
    key: "_output_shapes"
    value {
      list {
        shape {
          dim {
            size: 1983
          }
        }
      }
    }
  }
  attr {
    key: "dtype"
    value {
      type: DT_FLOAT
    }
  }
  attr {
    key: "value"
    value {
      tensor {
        dtype: DT_FLOAT
        tensor_shape {
          dim {
            size: 1983
          }
        }
        tensor_content: "\000\000@@\000\000@@\000\000\200@\000\000@@\000\000@@\000\000\200?\000\000\000@\000\000@@\000\000\200?\000\000@@\000\000\000@\000\000\000@\000\000\000@\000\000\240@\000\000@@\000\000@@\000\000@@\000\000\000@\000\000@@\000\000@@\000\000@@\000\000@@\000\000\000@\000\000\000@\000\000\240@\000\000\000@\000\000\000@\000\000\200?\000\000\000@\000\000@@\000\000\220@\000\000\200?\000\000\000@\000\000@@\000\000@@\000\000\200?\000\000@@\000\000\000@\000\000\200?\000\000@@\000\000\000@\000\000@@\000\000\000@\000\000\000@\000\000\000@\000\000\000@\000\000\240@\000\000\000@\000\000\200?\000\000\200@\000\000@@\000\000\200?\000\000@@\000\000@@\000\000\030A\000\000@@\000\000@@\000\000\000@\000\000\200?\000\000\000@\000\000\000@\000\000\000@\000\000\000\000\000\000\000@\000\000\200?\000\000\200@\000\000\200?\000\000\000@\000\000@@\000\000@@\000\000\000@\000\000\000@\000\000\300@\000\000\200?\000\000\200@\000\000\200?\000\000\240@\000\000@@\000\000\200?\000\000\200?\000\000\200?\000\000\200@\000\000\000@\000\000\000@\000\000@@\000\000@@\000\000\000\000\000\000@@\000\000\200@\000\000\000@\000\000@@\000\000\000@\000\000\000@\000\000\200@\000\000\000@\000\000@@\000\000\000@\000\000@@\000\000\000@\000\000@@\000\000\000@\000\000\000@\000\000\000@\000\000@@\000\000\000@\000\000\240@\000\000\000@\000\000\240@\000\000\000@\000\000\000@\000\000\200?\000\000\000@\000\000\000@\000\000\200?\000\000@@\000\000@@\000\000\200?\000\000\220@\000\000\000@\000\000\200?\000\000\000@\000\000@@\000\000\200@\000\000\000@\000\000\200@\000\000\000@\000\000\000@\000\000\000@\000\000@@\000\000\200?\000\000\200?\000\000\000@\000\000\000@\000\000\220@\000\000\000\000\000\000\000@\000\000\000@\000\000@@\000\000\000@\000\000\000\000\000\000\000\000\000\000\000@\000\000@@\000\000\000@\000\000@@\000\000@@\000\000\240@\000\000@@\000\000\000@\000\000\000\000\000\000\000@\000\000\200?\000\000@@\000\000\000@\000\000\000@\000\000@@\000\000@@\000\000\000@\000\000\200?\000\000\200@\000\000\000@\000\000\000@\000\000\000@\000\000\000@\000\000\200@\000\000\000@\000\000\240@\000\000\300@\000\000\200?\000\000\200?\000\000\000@\000\000\000@\000\000@@\000\000\200@\000\000 @\000\000\000@\000\000\000@\000\000\200@\000\000\200?\000\000\200?\000\000\000@\000\000\200?\000\000@@\000\000\000@\000\000\000@\000\000\000@\000\000\200?\000\000\000@\000\000\200?\000\000\000A\000\000\000@\000\000@@\000\000@@\000\000\200?\000\000@@\000\000\200?\000\000@@\000\000@@\000\000\000@\000\000\000@\000\000\000@\000\000\200?\000\000\240@\000\000\000@\000\000@@\000\000\000\000\000\000\200?\000\000\000@\000\000@@\000\000\200?\000\000 @\000\000@@\000\000\000@\000\000@@\000\000\200?\000\000\200@\000\000\200?\000\000@@\000\000\000@\000\000@@\000\000\000@\000\000@@\000\000@@\000\000\000@\000\000\000@\000\000\200?\000\000\000@\000\000\200?\000\000@@\000\000\200?\000\000\200@\000\000\000\000\000\000\000@\000\000\000\000\000\000@@\000\000@@\000\000\300@\000\000\000@\000\000\000@\000\000\200?\000\000@@\000\000\300@\000\000 @\000\000\000@\000\000\200?\000\000\000@\000\000\200?\000\000\300@\000\000\200?\000\000\200@\000\000\320@\000\000\000@\000\000\200@\000\000\000@\000\000@@\000\000\200@\000\000\300@\000\000\000\000\000\000\000\000\000\000\000\000\000\000\300@\000\000\200?\000\000\000@\000\000\000@\000\000\000@\000\000\000@\000\000@@\000\000\000@\000\000\200?\000\000@@\000\000\000@\000\000@@\000\000\000@\000\000@@\000\000\200?\000\000\220@\000\000@@\000\000\000@\000\000\000@\000\000\240@\000\000\000@\000\000\000\000\000\000\000@\000\000 A\000\000\000@\000\000\000@\000\000\000@\000\000@@\000\000\200@\000\000\200?\000\000\200?\000\000\000\000\000\000@@\000\000\000\000\000\000@@\000\000\000@\000\000\200?\000\000\000@\000\000\200@\000\000\000\000\000\000\200?\000\000\200@\000\000\000@\000\000\200?\000\000\000@\000\000@@\000\000\000@\000\000 @\000\000\000@\000\000\000@\000\000@@\000\000\300@\000\000\200?\000\000@@\000\000\000@\000\000@@\000\000\000@\000\000\000A\000\000\000@\000\000\240@\000\000\000@\000\000\000@\000\000@@\000\000\000@\000\000\000@\000\000@@\000\000\200?\000\000@@\000\000@@\000\000\200@\000\000\000@\000\000\200?\000\000\240@\000\000\000@\000\000\000\000\000\000\200?\000\000\000@\000\000\200?\000\000\300@\000\000\000@\000\000\200@\000\000\200@\000\000\200@\000\000@@\000\000\000@\000\000\000@\000\000\000@\000\000\200@\000\000\200@\000\000\000@\000\000\200@\000\000\000@\000\000\340@\000\000\200@\000\000`@\000\000\000@\000\000\200@\000\000@@\000\000@@\000\000\200@\000\000\000@\000\000@@\000\000\200?\000\000@@\000\000@@\000\000@@\000\000\200?\000\000\000@\000\000\000@\000\000@@\000\000\000@\000\000\000@\000\000\200?\000\000\240@\000\000@@\000\000\000\000\000\000\000@\000\000\000@\000\000\000\000\000\000@@\000\000\200@\000\000\000@\000\000@@\000\000\000@\000\000\000@\000\000\000@\000\000\200@\000\000\000@\000\000\200@\000\000\200@\000\000@@\000\000\200?\000\000\000@\000\000\200@\000\000\000@\000\000\320@\000\000@@\000\000\000@\000\000\200?\000\000\300@\000\000\000@\000\000\200?\000\000\000@\000\000@@\000\000\200?\000\000\200?\000\000\200?\000\000\000@\000\000\000@\000\000\000@\000\000@@\000\000\000@\000\000\000@\000\000\200?\000\000\000@\000\000\200@\000\000\240@\000\000\000@\000\000\000@\000\000\200?\000\000@@\000\000@@\000\000\200?\000\000\000@\000\000\000@\000\000@@\000\000\200?\000\000\200?\000\000\200?\000\000\000\000\000\000\000@\000\000\000A\000\000@@\000\000\000@\000\000\200?\000\000\000@\000\000\000@\000\000\000@\000\000@@\000\000\000@\000\000@@\000\000\000@\000\000\200?\000\000@@\000\000\000@\000\000\000@\000\000\000@\000\000\200?\000\000\200?\000\000@@\000\000\200?\000\000@@\000\000\000@\000\000\000@\000\000\200?\000\000\000@\000\000@@\000\000\000@\000\000\220@\000\000@@\000\000\240@\000\000\200?\000\000\240@\000\000\240@\000\000\200?\000\000\200?\000\000\000\000\000\000\000@\000\000\000\000\000\000@@\000\000@@\000\000\200?\000\000\000@\000\000@@\000\000\000@\000\000\000@\000\000\240@\000\000\000@\000\000`@\000\000\000@\000\000\200?\000\000@@\000\000\200?\000\000@@\000\000\200@\000\000\000@\000\000\200?\000\000\300@\000\000\000@\000\000\000@\000\000\000@\000\000\000@\000\000\000@\000\000@@\000\000\000@\000\000\200?\000\000@@\000\000@@\000\000@@\000\000\000\000\000\000\000@\000\000@@\000\000`@\000\000@@\000\000\000@\000\000\200?\000\000\000@\000\000\300@\000\000@@\000\000\000@\000\000\000@\000\000\000@\000\000\200?\000\000@@\000\000\000@\000\000\200?\000\000\000@\000\000@@\000\000\000@\000\000\200?\000\000\200@\000\000\000@\000\000@@\000\000@@\000\000@@\000\000\200@\000\000\000\000\000\000@@\000\000\300@\000\000\000\000\000\000\240@\000\000\000@\000\000\000@\000\000\000@\000\000\000@\000\000\200?\000\000\000@\000\000\200@\000\000@@\000\000\000@\000\000\200?\000\000\200?\000\000@@\000\000\200@\000\000\000\000\000\000@@\000\000\200@\000\000@@\000\000@@\000\000\200@\000\000@@\000\000\000\000\000\000@@\000\000@@\000\000\200?\000\000@@\000\000\240@\000\000@@\000\000\000@\000\000\200?\000\000\200?\000\000\000@\000\000\000@\000\000\240@\000\000\000@\000\000@@\000\000\000@\000\000`@\000\000\000@\000\000\000@\000\000 @\000\000\000@\000\000\000@\000\000\300@\000\000\300?\000\000\200?\000\000\000@\000\000@@\000\000\000\000\000\000\000@\000\000\200?\000\000@@\000\000\200?\000\000@@\000\000\000@\000\000\000@\000\000\000@\000\000\200@\000\000PA\000\000\300@\000\000@@\000\000\000@\000\000\000@\000\000\200?\000\000\200?\000\000\200?\000\000\200@\000\000\000@\000\000\000@\000\000\200@\000\000\000@\000\000\000\000\000\000\200?\000\000\000@\000\000@@\000\000@@\000\000\000@\000\000\000@\000\000\000@\000\000@@\000\000\000@\000\000\200?\000\000\000@\000\000\240@\000\000\000@\000\000\000@\000\000\000@\000\000\000@\000\000\000@\000\000\000@\000\000\000\000\000\000@@\000\000\200@\000\000\240@\000\000@@\000\000\200?\000\000\200?\000\000\300?\000\000\000@\000\000@@\000\000\200?\000\000\000\000\000\000\000@\000\000\000@\000\000\000@\000\000@@\000\000\200@\000\000\000@\000\000\000@\000\000\200@\000\000\200?\000\000\200@\000\000\200@\000\000\000@\000\000\000@\000\000\200?\000\000\200@\000\000\200?\000\000\000@\000\000\000@\000\000\200@\000\000\000@\000\000@@\000\000\000@\000\000\000@\000\000\000@\000\000\000@\000\000\000@\000\000\000@\000\000@@\000\000\000@\000\000\000@\000\000\000@\000\000@@\000\000@@\000\000\000@\000\000\000\000\000\000\200?\000\000@@\000\000\000\000\000\000\000@\000\000\000@\000\000\200?\000\000@@\000\000\000\000\000\000\200?\000\000@@\000\000\200?\000\000@@\000\000\000@\000\000\200?\000\000\000@\000\000\000@\000\000\000@\000\000\200@\000\000\200?\000\000\000@\000\000\200?\000\000\240@\000\000@@\000\000\240@\000\000@@\000\000\000@\000\000@@\000\000@@\000\000`@\000\000\000@\000\000\200?\000\000@@\000\000\000@\000\000\000@\000\000\300@\000\000@@\000\000@@\000\000@@\000\000\200?\000\000\000@\000\000\000@\000\000\000\000\000\000\200@\000\000\000@\000\000@@\000\000\000@\000\000\000@\000\000\000@\000\000\000@\000\000\240@\000\000\000@\000\000\200?\000\000\000\000\000\000@@\000\000\200?\000\000\000@\000\000\000@\000\000@@\000\000\000\000\000\000\000@\000\000\200?\000\000\200?\000\000\320@\000\000\000@\000\000\000@\000\000\000@\000\000@@\000\000\000@\000\000\000@\000\000\200?\000\000\000@\000\000\200@\000\000@@\000\000@@\000\000\200?\000\000\200@\000\000\200?\000\000\000@\000\000\200?\000\000\010A\000\000\240@\000\000\000@\000\000@@\000\000@@\000\000@@\000\000\200@\000\000@@\000\000@@\000\000\000@\000\000@@\000\000\200?\000\000\000@\000\000\000@\000\000@@\000\000@@\000\000\000@\000\000\000@\000\000\200?\000\000\000@\000\000\200@\000\000@@\000\000\000@\000\000\200?\000\000\200@\000\000\200@\000\000\000@\000\000\000\000\000\000@@\000\000\000@\000\000\000@\000\000@@\000\000\000@\000\000\000A\000\000\200@\000\000\200@\000\000\000\000\000\000\000@\000\000\260@\000\000\000@\000\000\000@\000\000\000@\000\000\000@\000\000\000@\000\000\200?\000\000@@\000\000\300@\000\000@@\000\000\000@\000\000\200?\000\000\000@\000\000\200?\000\000\000@\000\000@@\000\000\200@\000\000@@\000\000\200?\000\000\200?\000\000@@\000\000\000@\000\000\200@\000\000@@\000\000\000@\000\000\300@\000\000 @\000\000@@\000\000@@\000\000\200?\000\000@@\000\000\200?\000\000\000@\000\000\000\000\000\000\200?\000\000\000@\000\000\200?\000\000@@\000\000\000@\000\000@@\000\000\200?\000\000\200?\000\000\000@\000\000@@\000\000\200?\000\000\200@\000\000@@\000\000\000\000\000\000@@\000\000@@\000\000\200?\000\000\000@\000\000\000@\000\000\000@\000\000@@\000\000\000@\000\000\000@\000\000@@\000\000\000@\000\000@@\000\000\000\000\000\000@@\000\000\240@\000\000\200?\000\000\000@\000\000@@\000\000\200?\000\000\200@\000\000\000@\000\000\200?\000\000\000\000\000\000\200?\000\000\000@\000\000@@\000\000\240@\000\000\000@\000\000\200?\000\000@@\000\000\000@\000\000\200@\000\000\200@\000\000\000@\000\000\200?\000\000\200?\000\000\000@\000\000\000@\000\000\000A\000\000@@\000\000\000@\000\000\200@\000\000\000@\000\000\000@\000\000\200?\000\000\000@\000\000\000A\000\000\000@\000\000\000@\000\000\000@\000\000\000@\000\000@@\000\000@@\000\000\000@\000\000\200?\000\000\200@\000\000\200?\000\000\000@\000\000\000@\000\000\000@\000\000\000@\000\000\200@\000\000@@\000\000@@\000\000\000@\000\000\000\000\000\000@@\000\000\200?\000\000@@\000\000\200?\000\000\000@\000\000\240@\000\000\300?\000\000\200?\000\000\000@\000\000\200?\000\000\200?\000\000\000@\000\000\300@\000\000@@\000\000\200?\000\000\000@\000\000\000@\000\000@@\000\000\200@\000\000\200@\000\000\000@\000\000@@\000\000@@\000\000@@\000\000\000@\000\000@@\000\000\200@\000\000 @\000\000\300?\000\000@@\000\000@@\000\000@@\000\000\200?\000\000@@\000\000@@\000\000@@\000\000\200@\000\000\200?\000\000\000@\000\000\000\000\000\000\200?\000\000@@\000\000@@\000\000\000@\000\000\000@\000\000\200@\000\000\000@\000\000\000@\000\000\000@\000\000\000@\000\000PA\000\000\200?\000\000\000@\000\000@@\000\000\200?\000\000\000@\000\000\000@\000\000\000@\000\000\200?\000\000\000@\000\000\000@\000\000\000\000\000\000\300@\000\000\000\000\000\000\000@\000\000\000@\000\000@@\000\000\220@\000\000\000@\000\000@@\000\000\340@\000\000@@\000\000@@\000\000\200?\000\000@@\000\000\200?\000\000\000@\000\000@@\000\000\000@\000\000\200?\000\000\240@\000\000\000\000\000\000 @\000\000\000@\000\000\000@\000\000\000@\000\000\240@\000\000\000@\000\000\200@\000\000\200?\000\000\000@\000\000\200?\000\000\000@\000\000\200@\000\000@@\000\000\200@\000\000\000@\000\000\000@\000\000\000@\000\000\000@\000\000\000@\000\000\000\000\000\000\000@\000\000\000@\000\000\000@\000\000\200?\000\000\200@\000\000\000@\000\000\200@\000\000\000@\000\000@@\000\000\200@\000\000\000@\000\000\000@\000\000\000@\000\000\000@\000\000@@\000\000\000@\000\000@@\000\000\000@\000\000\000@\000\000@@\000\000\200?\000\000\000A\000\000\200?\000\000@@\000\000@@\000\000\000@\000\000\000@\000\000@@\000\000\200?\000\000\000@\000\000@@\000\000\000@\000\000\000@\000\000\000@\000\000\000@\000\000\000@\000\000@@\000\000\000@\000\000@@\000\000\000@\000\000\340@\000\000\000@\000\000@@\000\000\200@\000\000@@\000\000\000@\000\000\200?\000\000@@\000\000\000@\000\000\200?\000\000\000@\000\000\300?\000\000\000\000\000\000\000@\000\000\000@\000\000\000@\000\000\240@\000\000\000@\000\000@@\000\000\200?\000\000\000@\000\000\200A\000\000@@\000\000\200?\000\000\000@\000\000\240@\000\000\000@\000\000\200?\000\000\240@\000\000\200?\000\000\000@\000\000@@\000\000\300@\000\000\200?\000\000\000\000\000\000\200@\000\000\240@\000\000\300@\000\000@@\000\000@@\000\000\000@\000\000\000@\000\000\200?\000\000@@\000\000\200@\000\000\200?\000\000\000@\000\000\300?\000\000\000@\000\000@@\000\000\000@\000\000\000@\000\000\240@\000\000 A\000\000@@\000\000\000@\000\000\200@\000\000\200@\000\000\340@\000\000\000@\000\000\000\000\000\000\200?\000\000@@\000\000\200@\000\000\300@\000\000\200?\000\000@@\000\000\200?\000\000@@\000\000@@\000\000\200?\000\000\000@\000\000@@\000\000@@\000\000\200?\000\000\200@\000\000\200?\000\000\000@\000\000@@\000\000\000@\000\000@@\000\000@@\000\000\000@\000\000\200?\000\000\200?\000\000\000@\000\000\300@\000\000@@\000\000`@\000\000@@\000\000@@\000\000\000@\000\000\200@\000\000\200?\000\000\000@\000\000@@\000\000\240@\000\000\000@\000\000\000@\000\000\000@\000\000@@\000\000\200?\000\000\200?\000\000\200?\000\000@@\000\000\000@\000\000\000A\000\000\000@\000\000@@\000\000@@\000\000\000@\000\000\000@\000\000\200?\000\000\200?\000\000\200?\000\000@@\000\000\000\000\000\000\200?\000\000\200?\000\000\000@\000\000@@\000\000\000@\000\000@@\000\000@@\000\000\000@\000\000\000@\000\000\200?\000\000@@\000\000\000@\000\000\000@\000\000\200?\000\000\200@\000\000 @\000\000\000@\000\000\000@\000\000\000@\000\000\000@\000\000\000@\000\000\000\000\000\000\000@\000\000\200?\000\000\000@\000\000\200?\000\000\000@\000\000@@\000\000\000@\000\000\000@\000\000@@\000\000\000A\000\000\000@\000\000@@\000\000\000@\000\000\000\000\000\000@@\000\000\300@\000\000\200?\000\000\000@\000\000\000@\000\000@@\000\000\000@\000\000@@\000\000\200?\000\000@@\000\000\200?\000\000@@\000\000\200?\000\000\000@\000\000\000@\000\000@@\000\000\000@\000\000\000@\000\000@@\000\000\000@\000\000@@\000\000\000@\000\000@@\000\000\000@\000\000\000@\000\000@@\000\000@@\000\000\240@\000\000\300@\000\000@@\000\000\000@\000\000\200?\000\000\000@\000\000\000@\000\000\200@\000\000\000@\000\000\000@\000\000\200@\000\000@@\000\000\000@\000\000\200?\000\000\000@\000\000\200?\000\000\240@\000\000\000@\000\000\200?\000\000`@\000\000\000@\000\000@@\000\000\000@\000\000\000@\000\000@@\000\000@@\000\000@@\000\000@@\000\000@@\000\000\200@\000\000\000@\000\000\000@\000\000\000@\000\000\000\000\000\000\000@\000\000\200@\000\000\000@\000\000\000@\000\000@@\000\000\000@\000\000\240@\000\000\000@\000\000@@\000\000\000@\000\000\000@\000\000@@\000\000\200@\000\000@@\000\000\200?\000\000\000@\000\000\000@\000\000\000@\000\000\000\000\000\000\000@\000\000@@\000\000@@\000\000\000@\000\000\200?\000\000\000@\000\000\200@\000\000@@\000\000\000@\000\000@@\000\000\000@\000\000\200?\000\000@@\000\000@@\000\000\000\000\000\000\000\000\000\000\000@\000\000\000@\000\000\200?\000\000\200@\000\000\000\000\000\000\200?\000\000@A\000\000\000@\000\000\240@\000\000@@\000\000@@\000\000\000@\000\000\000@\000\000\000@\000\000@@\000\000@@\000\000\000@\000\000\000@\000\000@A\000\000\000@\000\000@@\000\000\200@\000\000@@\000\000@@\000\000\200@\000\000\000@\000\000\000\000\000\000\000@\000\000\200?\000\000@@\000\000\000@\000\000\000@\000\000\200?\000\000\200?\000\000\200@\000\000\200@\000\000\000@\000\000@@\000\000@@\000\000\200@\000\000\000\000\000\000 @\000\000\340@\000\000\000@\000\000 @\000\000@@\000\000\200?\000\000\000@\000\000\200@\000\000\200?\000\000\000@\000\000\220@\000\000\000@\000\000@@\000\000\200?\000\000@@\000\000\200@\000\000\200?\000\000`@\000\000\000@\000\000\200?\000\000\000@\000\000\000@\000\000@@\000\000\000@\000\000\240@\000\000\000@\000\000@@\000\000@@\000\000@@\000\000@@\000\000\200?\000\000\000@\000\000@@\000\000\000@\000\000\000@\000\000@@\000\000@@\000\000\200@\000\000@@\000\000\200?\000\000\000@\000\000\200@\000\000\000@\000\000@@\000\000\000@\000\000\000@\000\000\240@\000\000\240@\000\000\000\000\000\000\200?\000\000\000@\000\000\000@\000\000@@\000\000\000@\000\000\200?\000\000\000@\000\000\000@\000\000\000@\000\000\000@\000\000\200@\000\000@@\000\000\240@\000\000\200@\000\000\000@\000\000\000@\000\000\200?\000\000\200?\000\000\240@\000\000\000@\000\000\000@\000\000\200@\000\000\000@\000\000\000@\000\000\000A\000\000\000@\000\000\240@\000\000@@\000\000\200?\000\000\200?\000\000@@\000\000\340@\000\000\240@\000\000@@\000\000@@\000\000@@\000\000\000@\000\000\000@\000\000\000@\000\000@@\000\000\300@\000\000\200?\000\000\000\000\000\000\000@\000\000\000@\000\000\000@\000\000\020@\000\000\000@\000\000\000@\000\000\200?\000\000\240@\000\000\200@\000\000@@\000\000@@\000\000\000@\000\000@@\000\000@@\000\000\000@\000\000\000@\000\000\000@\000\000\000@\000\000\000@\000\000@@\000\000\000\000\000\000@@\000\000\200?\000\000\000\000\000\000@@\000\000\000@\000\000@@\000\000\200?\000\000@@\000\000\000@\000\000\200?\000\000@@\000\000@@\000\000\000@\000\000\000@\000\000@@\000\000\200@\000\000@@\000\000\200?\000\000@@\000\000\200?\000\000\200?\000\000\000@\000\000@@\000\000\300@\000\000\000@\000\000\000@\000\000\000@\000\000\000@\000\000@@\000\000\000@\000\000\200?\000\000\240@\000\000@@\000\000\000@\000\000\000@\000\000@@\000\000\000\000\000\000\200@\000\000pA\000\000 @\000\000@@\000\000@@\000\000\000@\000\000\000@\000\000\340@\000\000\000@\000\000@@\000\000\000@\000\000\000\000\000\000\000@\000\000\200?\000\000@@\000\000@@\000\000\000@\000\000\000@\000\000\000@\000\000\200?\000\000\000@\000\000@@\000\000\200@\000\000@@\000\000\000@\000\000\200?\000\000\200?\000\000 @\000\000\000@\000\000\000@\000\000@@\000\000\340@\000\000\200@\000\000@@\000\000\200?\000\000\000@\000\000\000@\000\000\000\000\000\000\000@\000\000\000\000\000\000\200?\000\000@@\000\000\000@\000\000@@\000\000@@\000\000\200?\000\000\000@\000\000@@\000\000\200?\000\000\000@\000\000@@\000\000\200?\000\000@@\000\000\000@\000\000\200@\000\000\000@\000\000\200?\000\000@@\000\000\000\000\000\000\000@\000\000\300@\000\000\000@\000\000@@\000\000\000@\000\000\200?\000\000\200?\000\000@@\000\000\320@\000\000@@\000\000\000@\000\000@@\000\000@@\000\000\000@\000\000\000@\000\000\240@\000\000\000\000\000\000@@\000\000\000\000\000\000\000@\000\000@@\000\000\200?\000\000\240@\000\000\240@\000\000\200?\000\000\200?\000\000@@\000\000\000@\000\000\200?\000\000@@\000\000\000@\000\000\000@\000\000@@\000\000\000@\000\000\200?\000\000\000@\000\000@@\000\000\000@\000\000\000@\000\000\000@\000\000 @\000\000@@\000\000@@\000\000@@\000\000\000@\000\000\000@\000\000\000\000\000\0000A\000\000\000@\000\000@@\000\000@@\000\000@@\000\000\000@\000\000\240@\000\000\000A\000\000\000@\000\000\240@\000\000\300?\000\000\200?\000\000\200?\000\000\200@\000\000\000@\000\000@@\000\000\200?\000\000\000@\000\000\300@\000\000\000@\000\000\200?\000\000\000@\000\000@@\000\000@@\000\000\000@\000\000\240@\000\000\000@\000\000\000@\000\000\200?\000\000@@\000\000\000\000\000\000\200?\000\000\200?\000\000\000@\000\000\200?\000\000@@\000\000\000@\000\000\240@\000\000@@\000\000 @\000\000\200?\000\000\240@\000\000\000@\000\000\000@\000\000\200?\000\000@@\000\000\200?\000\000\000@\000\000\000@\000\000\000@\000\000\200?\000\000\000@\000\000\200?\000\000@@\000\000\300@\000\000@@\000\000\000@\000\000\000@\000\000\200?\000\000\000@\000\000\000@\000\000\000\000\000\000\000@\000\000@@\000\000\000@\000\000\200?\000\000\000@\000\000\000\000\000\000\200?\000\000\240@\000\000\000@\000\000@@\000\000@@\000\000\200?\000\000\000@\000\000\200@\000\000@@\000\000\000\000\000\000\220@\000\000@@\000\000\000\000\000\000\000@\000\000@@\000\000@@\000\000 @\000\000\240@\000\000@@\000\000\300@\000\000\200?\000\000\000@\000\000\200@\000\000@@\000\000@@\000\000\000@\000\000@@\000\000\000@\000\000@@\000\000\200?\000\000\000@\000\000@@\000\000\000@\000\000`@\000\000\260A\000\000\200?\000\000\000@\000\000\200?\000\000\200@\000\000\000@\000\000\000@\000\000\000@\000\000\200@\000\000@@\000\000\000@\000\000\000@\000\000\000\000\000\000@@\000\000\200?\000\000\000@\000\000\000\000\000\000@@\000\000 @\000\000\200@\000\000\000@\000\000\000\000\000\000@@\000\000\000@\000\000\000\000\000\000\000@\000\000\200?\000\000@@\000\000\200?\000\000\240@\000\000\240@\000\000\000@\000\000@@\000\000\000@\000\000\200?\000\000\200?\000\000@@\000\000@@\000\000\200@\000\000\000A\000\000\000@\000\000\000\000\000\000\000@\000\000\200?\000\000\200@\000\000\200?\000\000@@\000\000\200?\000\000\000@\000\000@@\000\000\200?\000\000\200?\000\000\200?\000\000\000@\000\000\000@\000\000\000@\000\000\200?\000\000@@\000\000\000@\000\000\200?\000\000\000@\000\000@@\000\000\000\000\000\000@@\000\000\000@\000\000\000@\000\000\240@\000\000\200?\000\000\000@\000\000\000@\000\000\000@\000\000\200?\000\000\200?\000\000\200?\000\000\000@\000\000\200?\000\000\200?\000\000\200?\000\000\000@\000\000\200?\000\000@@\000\000@@\000\000\200?\000\000@@\000\000\000@\000\000@@\000\000\240@\000\000@@\000\000\000@\000\000`@\000\000@@\000\000@@\000\000\200?\000\000\000@\000\000\000@\000\000@@\000\000\200?\000\000\000@\000\000\000@\000\000\000@\000\000@@\000\000\000@\000\000@@\000\000\000@\000\000\000@\000\000\000@\000\000\000@\000\000@@\000\000@@\000\000\200?\000\000@@\000\000\000@\000\000\000@\000\000@@\000\000\200?\000\000\200?\000\000\000@\000\000\000@\000\000\200?\000\000\000\000\000\000\300@\000\000@@\000\000\000@\000\000\000\000\000\000\200@\000\000\200?\000\000\000\000\000\000\000@\000\000\340@\000\000@@\000\000\200?\000\000\300@\000\000@@\000\000\000@\000\000@@\000\000@@\000\000@@\000\000\000@\000\000\000@\000\000@@\000\000\000@\000\000\000@\000\000\000@\000\000\200?\000\000\000@\000\000\200@\000\000\200@\000\000\340@\000\000\000@\000\000\000@\000\000\000@\000\000\000\000\000\000\000@\000\000\200?\000\000\000@\000\000\200@\000\000\200@\000\000\000@\000\000@@\000\000\000@\000\000\000@\000\000 @\000\000\000@\000\000\000@\000\000\000@\000\000\000@\000\000\000@\000\000@@\000\000\000@\000\000\000@\000\000\000@\000\000 @\000\000@@\000\000\000\000\000\000@@\000\000\000@\000\000\000@\000\000\000@\000\000 @\000\000\000@\000\000\000@\000\000\020A\000\000\000@\000\000\200?\000\000@@\000\000\200?\000\000\000@\000\000\000@\000\000@@\000\000\200@\000\000\200@\000\000@@\000\000\000@\000\000\200?\000\000\000@\000\000@@\000\000\200?\000\000\340@\000\000\200@\000\000\000@\000\000\000@\000\000\000@\000\000\000\000\000\000`@\000\000\000@\000\000@@\000\000\000\000\000\000@@\000\000\200?\000\000\000@\000\000\000\000\000\000\200@\000\000\000@\000\000\000@\000\000@@\000\000\000@\000\000@@\000\000@@\000\000\000@\000\000@@\000\000\000@\000\000\000\000\000\000@@\000\000\000@\000\000\200?\000\000\200?\000\000\000@\000\000@@\000\000\200?\000\000\240@\000\000\240@\000\000@@\000\000 @\000\000\200@\000\000\000@\000\000\000@\000\000\200?\000\000@@\000\000\300@\000\000\000\000\000\000\000@\000\000\200?\000\000@@\000\000\000\000\000\000@@\000\000\220@\000\000\200?\000\000\340@\000\000@@\000\000 @\000\000\000@\000\000\200?\000\000@@\000\000\000@\000\000\000@\000\000\000@\000\000\200?\000\000\000@\000\000\000@\000\000\000\000\000\000@@\000\000\200?\000\000\200?\000\000\000@\000\000\000@\000\000\000@\000\000\200?\000\000\200@\000\000\000@\000\000\000@\000\000\000@\000\000@@\000\000\000@\000\000@@\000\000\000@\000\000\000@\000\000\240@\000\000@@\000\000\000@\000\000\000@\000\000\000@\000\000\240@\000\000\000@\000\000\200?\000\000\000\000\000\000\200@\000\000\000@\000\000\200?\000\000\000@\000\000\200?\000\000\000@\000\000\000@\000\000\000@\000\000\000@\000\000\000@"
      }
    }
  }
}
node {
  name: "Const_2"
  op: "Const"
  attr {
    key: "_output_shapes"
    value {
      list {
        shape {
          dim {
            size: 1983
          }
        }
      }
    }
  }
  attr {
    key: "dtype"
    value {
      type: DT_FLOAT
    }
  }
  attr {
    key: "value"
    value {
      tensor {
        dtype: DT_FLOAT
        tensor_shape {
          dim {
            size: 1983
          }
        }
        tensor_content: "\000\300<E\000\200\324D\000\260@E\000\320RE\000\000\356D\000\300\200D\000\000\372D\000 \272D\000\000fD\000\300\027E\000\300\217D\000\000\311D\000`\211D\000\370\261E\000\000/E\000\300,E\000\200\234D\000\300\323D\000`\rE\000\300;E\000\300\223D\000@\014E\000\000vD\000\200\300D\000\320HE\000`\250D\000\200\310D\000\300\017E\000\200\263D\000\340;E\000\000HE\000\000\000\000\000\300xD\000pCE\000\260\022E\000\300\200D\000\300oE\000\300\235D\000\000\004D\000`\274D\000@\343D\000\020%E\000\200\331D\000\000\245D\000@\203D\000\200\311D\0000\242E\000 \227D\000\2004D\000@NE\000\320\033E\000\0000D\000\360ME\000\310\214E\000\014UF\000\260\017E\000`\034E\000\300\230D\000\000XD\000\340\rE\000@\334D\000\300\255D\000\000\000\000\000\300\323D\000\000GD\000p\024E\000\340\202D\000`\310D\000\240\002E\000\300\017E\000@bD\000@\243D\000\000\242E\000\0003D\000P\036E\000\000jD\000\230\251E\000\200YE\000\000\365C\000@2D\000\000\260D\0000%E\000\000\264D\000\200xD\0000\'E\000\200\351D\000\220LF\000 GE\000\340\222E\000\200\241D\0000\036E\000 \216D\000\200DD\000\200\234E\000\000\271D\000\000\253D\000\200\207D\000\340\020E\000@\217D\000\320\021E\000\300\223D\000@\265D\000\000\014E\000\360\002E\000@\003E\000\210\204E\000\200TD\000 \223E\000\000\233D\000 \211D\000\0004D\000\240\221D\000\000\230D\000\300\nD\000\240\013E\0000\001E\000 \242D\0000\204E\000@TD\000\0006D\000\200\306D\000\340\253E\000\200\201E\000\300\346D\000`\206E\000\000\310D\000\340\234D\000 \253D\000\300\320D\000\0008D\000\000VD\000\000\226D\000\240\203D\000 sE\000\000\000\000\000\000\220D\000\000\327D\000\340:E\000\200fD\000\000\000\000\000\000\000\000\000\000\274D\000p\032E\000\200sD\000\240\333D\000\000OE\000`JE\000\200\267D\000@\263D\000\000\257D\000\300\254D\000\000_D\000@\365D\000`\375D\000\200\251D\000 (E\000`\323D\000@\320D\000 \207D\000@\331D\000\240\323D\000\340\314D\000\200qD\000\300\250D\000\220?E\000\300\311D\000\230\202E\000\340\253E\000\300\203D\000\200\216D\000`\201D\000\000\346D\000P.E\000@:E\000\200\266D\000\300\250D\000\300\243D\000@\023E\000\300=D\000\240\200D\000\240\257D\000@\304D\000`\021E\000\200\214D\000\300\333D\000 \240D\000\000\214D\000\000lD\000\200\267D\000\000\257E\000\000\214D\000 \377D\000\200\010E\000\000\266C\000 \360D\000\200QD\000\300/E\000\000\025E\000@\304D\000\240\315D\000\200\212D\000`\200D\000x\307E\000\200eD\000\200\301D\000pbE\000\200ED\000\300\226D\000\000\371D\000\200\201D\000\240\014E\000`\025E\000\200\314D\000\000\333D\000\2007D\000 \000E\000\200KE\000\320\032E\000\240\215D\000@\013E\000\340\302D\000@\306D\000\340\034E\000 \036E\000\000\230D\000`\222D\000@\246D\000\000\177D\000\340\027E\000\200\261D\000\360sE\000\200\tE\000\000\377D\000\260\232E\000\360\023E\000\220\014E\000\220\246E\000\200\253D\000@\237D\000\340\223D\000\360\013E\000p\232E\000\000\000\000\000\220/E\000@3D\000\000\214D\000\000\377C\000 \277E\000\300eD\000\2006E\000x\353E\000`\343D\000\200;E\000\000\214D\000 \355D\000\2008E\000 \177E\000\340,E\000\000\000\000\000\270\253E\000\200;F\000@\233D\000`\221D\000`\206D\000`\337D\000\300\246D\000\340\224D\000\000\360D\000\000dD\000`\037E\000\200\216D\000\240\314D\000\200\266D\000`\364D\000\000\202D\0000}E\000\240\327D\000\340\257D\000\200eD\000@\202E\000\000\263D\000\200\310D\000\000\264D\000\000zF\000 \312D\000@\224D\000 2E\000\340\022E\000\230\212E\000\300kD\000\000\226D\000`\023E\000\200\346D\000\000\000\000\000@\377D\000\200\266D\000\000HD\000\200\270D\000\260zE\000\000\264D\000\000\210D\000\240\245D\000\200\266D\000\2007D\000\000uD\000\000\372D\000\340\255D\000@\334D\000\200\276D\000\000\270D\000@\263D\000\230\304E\000\200\232D\000p\024E\000\000JD\000\3208E\000 \256D\000\000\355E\000\240\220D\000PEE\000\240\226D\000\000\242D\000\3003E\000`\205D\000\200\211D\000\300\217D\000\000\231D\000\220\020E\000p\001E\000pzE\000`\321D\000\300\203D\000\330\257E\000\300\224D\000@6F\000\000\010D\000\200\tE\000\200\273D\000 yE\000\000kD\0004\002F\000\360\016E\000\360,E\000\240\373D\000\000\226D\000@\216D\000\240\310D\000\230\225E\000\0200E\000\000\177D\000\000\000\000\000\340\252D\000\270\021F\000\3204E\000\240\340D\000 \216D\000 #E\000P\000E\000\240\006E\000 \245E\000\200^D\000\340\356D\000\200\tD\000\000\021E\000\000\245D\000 }E\000\000aD\000\300ZD\000\200}D\000\200\261D\000\300\244D\000\300\306D\000\200MD\0008\205E\000`\366D\000\000\000\000\000\240\365D\000`\333D\000\300=E\000\220\033E\000\350\217E\000@\324D\000\240\001E\000\200\242D\000\000\276D\000\000\250D\000\300AE\000\200\231D\000\000zE\000`\200E\000p\016E\000\200aD\000\000\252D\000@NE\000`\231D\000\340+F\000\000\000\000\000\000iD\000@bD\000x\202F\000\000zD\000\000\226D\000\300\350D\000`\027E\000\200\273D\000@\203D\000\000HD\000@\334D\000\300\254D\000\300\231D\000\320+E\000\300vD\000@\255D\000\200YD\000 \330D\000\320;E\000\350\270E\000\300\325D\000\340\201D\000\200\202D\000\240\251E\000 \365D\000\240\236D\000 \373D\000\300\315D\000\200\023E\000\300ED\000\200\374C\000@\003D\000\220CE\000\200\305D\000H\330E\000\300\367D\000\200\211D\000\000\210D\000@\203D\000\000\001E\000\300\306D\000\000:E\000\200\304D\000\200\374D\000\300FE\000@cD\000\2404E\000\240\327D\000\000\264D\000P\001E\000\200\236D\000@\033D\000\340\rE\000\000\322D\000 \305D\000\000\367D\000\300nD\000\000\360C\000\000\233D\000@\256D\000\000\221D\000\240`E\000\000\341D\000\300}E\000\300wD\000\030\211E\000\240}E\000\200WD\000@\203D\000 ~E\000\300\315D\000\000\026D\000`)E\000\000\000\000\000\000\215D\000\000\310D\000@\013E\000\000vD\000\300\264D\000\300\217E\000\000\315D\000\340cE\000@\273D\000\300\203D\000\000\372D\000\000MD\000p\001E\000\340\032E\000 \213D\000\000\000D\000\340\233E\000\340\316D\000@\271D\000\000\322D\000\340\323D\000`\360D\000`\374D\000\000\000\000\000\200TD\000pFE\000\300\311D\000\360\010E\000\240mE\000\300\235D\000\000\347D\0000\211E\000@\373D\000\000\330D\000\000zD\000\200\317D\000\320\302E\000p\tE\000\200\204D\000\000\204D\000\240\307D\000\000_D\000\020<E\000\000\226D\000\000aD\000@\350D\000\300\016E\000\300\376D\000\000*D\000\340\306D\000\300}D\000\260=E\000@KE\000\200\357D\000 \210E\000\000\000\000\000\340\005E\000\350\255E\000\020\021E\000\340\264E\000@\324D\000@\361D\000\200\312D\000 \322D\000\200&D\000\300\325D\000\250\211E\000@\271D\000\200\305D\000\200JD\000\000\007D\0000\036E\000p\024E\000\340\375D\000 \004E\000\000\310D\000\000\023E\000@&E\000@9E\000\220*E\000\000\321D\000\200\311D\000\200\003E\000\000fD\000\000\363D\0008\201E\000\300\313D\000\340\370D\000\000(D\000\300\032D\000\200ZD\000\300yD\000 ^E\000`\321D\000\260\027E\000\340\353D\000(\334E\000\240\024E\000\000\323D\000 CE\000\000uD\000\200\315D\000\340\253E\000\200\242D\000\300KD\000@vD\000 UE\000 \202E\000\300\350D\000\000\034D\000\000\007E\000\200\\D\000\000\322D\000\300\235D\000`\203D\000\300\301D\000\340\010E\000\210\370E\000\340/E\000\020\tE\000 \335D\000\340\234D\000@ED\000\000\\D\000\300\002E\000\360mE\000\000nD\000\240\272D\000 ZE\000\300\212D\000\340\205E\000\000\355C\000\000\257D\000\300\303D\000\340\014E\000 \261D\000\200\250D\000\000wD\000\200+E\000\000\000\000\000\200dD\000\200\322D\000\020\267E\000\240\302D\000\200\242D\000\000\341D\000\240\310D\000\000kD\000@\267D\000\200\355D\000\300\344D\000 2E\000\300ZE\000\200\312D\000\000zD\000\300\217D\000\000\264D\000\240\212D\000\300\250D\000@?D\000\260\213E\000\340\317D\000\200\324D\000@\237D\000\360>E\000\200;E\000\000nD\000 \205D\000\240;E\000\200_D\000\000zE\000p E\000\200\261D\000@\324D\000\000\226D\000@0E\000\000\000\000\000\200\301D\000\200\263D\000\200mE\000\000\210D\000\000\267D\000\000\246D\000\000kD\000\000\252D\000p!E\000\200\245D\000\000}D\000\300(E\000\000\341D\000\200\274D\000\200\350D\000\000\336D\000\000\267D\000`\213D\000@\261E\000\000\000\000\0000\010E\000\000xD\000\000\234D\000\300\301D\000\000DD\000\200\357D\000\000\000\000\000\200XD\000\220\000E\000\000FD\000 \024E\000\200\276D\000`\202D\000\200\300D\000\340\270D\000 \314D\000@\203E\000\000\004D\000@sD\000\000pD\000 \212E\000\200YE\000`\206E\000\300\315D\000\200\241D\000\200TE\000`\325D\000@gE\000\240\227D\000\240\237D\000\000\322D\000@\223D\000\000\230D\000\240\226E\000\300\022E\000\300\000E\000\000\312D\000\000\365C\000\000HD\000\000tD\000\004\030F\000p5E\000\240\342D\000p.E\000\300\221D\000\200\346D\000\200\336D\000\200nD\000\000zE\000\200\357D\000@CD\000\000\264D\000\360\036E\000\000\221D\000\000\273D\000\200\317D\000`\033E\000@\250D\000\200\177D\000\000\203D\000\300aD\000\310\265E\000\000\014E\000 \356D\000`\205D\000\340\262D\000\340\221D\000\240\313D\000\000\207D\000\240\220D\000\000!E\000\000\000\000\000\000\344D\000\000\202D\000\340]E\000\000wD\000\000\300D\000@#D\000\340\304E\000\320\230E\000\300\247D\000\240\266D\000@\361D\000p\\E\000\020!E\000\300\017E\000\300-E\000\340\271D\000\340\257D\000\000$D\000\240\255D\000\200\323D\000\300\370D\000`\021E\000`\345D\000\000\310D\000\200[D\000\000\234D\000@aE\000\200(E\000`\320D\000\200cD\000`IE\000P\010E\000 \220D\000\200&E\000\340\226D\000\340\272D\000\300\370D\000\300:E\000@\331D\000\360\002F\000\320\030E\000\000\000\000\000\000\300D\000 \255D\000\200\273E\000\300\231D\000\200\301D\000\000gD\000\300\235D\000@\277D\000\340\206D\000\300PE\000\000\000\000\000\220<E\000\200\312D\000\000\000\000\000\000\306D\000\340\210D\000\340\232D\000 \250D\000\300AE\000\340\252D\000\0009D\000\200TD\000\240\003E\000\240\215D\000\310\224E\000\260\021E\000\200\322D\000\260\260E\000 \363D\000@\304D\000\300\363D\000\300\036D\000\200\331D\000\300FD\000@\351D\000\000\325D\000\200?D\000 \304D\000\000\255D\000\300\005E\000\300\205D\000 \337D\000\000\356C\000 \240D\000@\220D\000\200\334D\000\300\271D\000@\365D\000\240\310D\000\320\022E\000\360\021E\000@\273D\000\300^D\000\000\221D\000\300\320D\000`\355D\000\200\266D\000@\260D\000\300\261D\000\200\006E\0000\025E\000@;E\000\200\205E\0000\002E\000p\243E\000@\205D\000\200\324D\000\200tD\000\200PD\0000\001E\000\000\225D\000@PD\000\000\000\000\000\200OD\000`\212D\000\240\306D\000pYE\000\200\034E\000\240\301D\000\300\336D\000\000\226D\000\240\207E\000\360fE\000\300\307D\000\300yD\000@;D\000`\274D\000\300\232D\000\3506F\000\240\014E\000\200\261D\000`rE\000`\222D\000p\010E\000\000>D\000\300\264D\000x\272E\000\000\360D\000\000\272D\000\200\274D\000\000\226D\000\300\306D\000\260.E\000`\232D\000`\242D\000p[E\000@AD\000\000\204D\000\000\264D\000\240\235D\000\200\346D\000\240\024E\000@\304D\000\300\024E\000 \034E\000@\003E\000\300\036E\000`\256D\000@\034E\000@\203D\000\000pD\000\200\324E\000\300\246D\000\000oD\000\300\376D\000\000zD\000\300\212D\000\200\205D\000\210kF\000\360\023E\000@\035D\0000\000E\000\000\242D\000\3208E\000\200TE\000\320\rE\000 \306D\000\000CE\000 \315D\000\340\030E\000@\267D\000\200\311D\000 UE\000\240\327D\000 \262D\000\020.E\000@\"E\000\300\000E\000\300)D\000\300\021E\000\020\033E\000 \267D\000\200\211E\000\000\271D\000\200{D\000`yE\000@\215D\000\200\000E\000\200\303D\000\000\246D\000\200\277D\000\000\000\000\000\240\340D\000\340\215D\000\340\304D\000\200\300D\000 \206F\000\200sD\000\340\225D\000\320?E\000\000\026D\000\300\363D\000@\200D\000\000\226D\000@\203D\000\000\372D\000\200\242D\000\240oE\000`IE\000\316\251F\000\000\264D\000\200\254D\000 >E\000p|E\000\200\310D\000\200\307D\000\200\324E\000\300\005E\000\200\016E\000\300\215D\000\240\013E\000\200uD\000 \325D\000 \264D\000\240\335D\000\000(D\000 qE\000\000\000\000\000\010\202E\000\220\014E\000\340\200D\000\300\205D\000@lE\000@\344D\000\000\326D\000\000pD\000\000\253D\000@6D\000\300\306D\000\000\353D\000\240jE\000\340yE\000@\260D\000\300\315D\000@\334D\000\300\212D\000\300\247D\0008\235E\000\340\301D\000\000\226D\000\000\036D\000\2000D\000\000\022E\000@\032E\000P\225E\000\200\177D\000\000\345D\000 ZE\000\200\211D\000\200\335D\000 \316D\000\300\376D\0000\236E\000\340\267D\000\020\000E\000`\303D\000\000\202D\000\300\031E\000\300\215D\000\240\365E\000\000!D\000\340\255D\0000\030E\000@\265D\000 +E\000`\331D\000\000XD\000\300\275D\000\000\372D\000\000\257D\000@\347D\000`\246D\000\240\310D\000`\214D\000\240\014E\000\000\202D\000@#E\000`\206D\000\240\226E\000\300\342D\000\240\353D\000\360SE\000`\333D\000\000\210D\000 \247D\000\300\005E\000\000\301D\000\200@D\000\240\215D\000\240\264D\000@\323D\000\240\244D\000\200\307D\000\300\331D\0000\246E\000\000\214D\000`4E\000\000RD\000\200\nE\000\346\320F\000\240EE\000\200jD\000\300\217D\000X\203E\000\000\037E\000\300KD\000x\341E\000\340\260D\000\000\257D\000\240\344D\000\240wE\000\000mD\000\300TD\000 _E\000\220qE\000\230\240E\000\200\277D\000\200\371D\000\200\211D\000\200\356D\000\300{D\0000\023E\000\220XE\000`\217D\000`\204D\000\2009D\000\000\226D\000\360\027E\000\300\305D\000@\325D\000\250\244E\000\350\320E\000@\374D\000@\220D\000`mE\000\340\311D\000\360\335E\000\0004D\000`BE\000\0005D\000\200\350D\000\240_E\000@?E\000\200\242D\000\020\010E\000`\206D\000\000\327D\000 \242D\000\300cD\000\300nD\000 \271D\000\000\035E\000\200,D\000\220@E\000\300ID\000`\345D\000\240\214E\000\200,E\000\340\232D\000\240\322D\000\000\250D\000\000\217D\000\300\231D\000\000\301D\000\340\022F\000 \262D\000\020VE\000\300\017E\000\000\000\000\000 \302D\000\300AE\000\000+D\000\240\220D\000`8E\000@\037E\000\240\330D\000\340\247D\000\000\237D\000\220(E\000\000\214D\000\000\366C\000\200\204D\000\200\335D\000\000\234D\000x/F\000\240\314D\000\200\345D\000\000\026E\000\000\271D\000\000\232D\000@\203D\000\300`D\000\240\202D\000\220\027E\000@\034E\000\200\230D\000\200\004D\000@\304D\000`&E\000\220\nE\000\000\365D\000@[E\000\340\254D\000\000\330D\000\240\262D\000\300\351D\000\300\002E\000\000\311D\000@\223D\000\000\000\000\000\220UE\000\300\200D\000\340\331D\000\300\311D\000\000\203D\000\000\312D\000@NE\000 \221D\000\000nD\000\200\233D\000\000\222D\000\340\323D\000\200\031E\000\000\313D\000\200\364D\000\200\235D\000\330\032F\0000\014E\000\340\350D\000@\224D\000\000\000\000\000\000\000\000\000\210\214E\000\200\021D\000 \360D\000 \253D\000@\324D\000\000\231D\000\000\250D\000\200\210D\000\000\232D\000\300ED\000\340\371D\000\200jD\000\000|D\000 \375D\000\000\350D\000`\352D\000 \243D\000\020\005E\000\000\357D\000\340\352D\000\300kD\000\260DE\000\000\341D\000\000RD\000\240\033E\000\240\350D\000 \262E\000\340\235E\000\200\023E\000\000\233D\000\0008D\000\340\251D\000\000\207D\000\000\000\000\000@\203D\000\200\324D\000@gE\000\300+E\000\200\350D\000\000\210D\000\000\303D\000\000\365C\000P\232E\000\200\312D\000\200JD\000\240:E\000\200hD\000@\252D\000\000\016E\000@zD\000  E\000\300 E\000`,E\000P\002E\000\000\265D\000 \200E\000\000\303D\000 \301D\000\240\320D\000x\245E\000`\230D\000\240\007E\000\300\325D\000P\004E\000\260<E\000 \301D\000\370\261E\000\000`D\000\320\017E\000\340\tE\000\200\212D\000\260\023E\000\340\024E\000\240\276D\000\200-D\000\340\255D\000\200\306D\000\240\312D\000@yD\000p\tE\000p&E\000\000\022E\000\000\361D\000\000\375D\000\240\224D\000`UE\000 !E\000\000\202D\000\000\000\000\000@\227D\000\200\"D\000\200\010E\000@\000E\000\370\313E\000@NE\000`\214D\000\220FE\000\200bD\000@\222E\000\000%E\000\200\351C\000\000\000\000\000`\215D\000\340vE\000P\024E\000\000\020E\000 \216D\000\240\272D\000\000\204D\000\300\337D\000\200\354D\000\200\001E\000\000\214D\000H\276E\000\000\321D\0000AE\000\2409E\000\240\006E\000\240*E\000\360NE\000\200\254D\000\000\000\000\000`\366D\000\200\204D\000\200\306D\000p\003E\000 \265D\000\300]D\000\2001D\000\300/E\000\000dE\000 \243D\000\350\202E\000\340\003E\0008\306E\000\000\366D\000\300\303D\0000\230E\000@\275D\000\200\025E\000@\377D\000 \210D\000\340\314D\000p&E\000\200]D\000@\207D\000\300\255E\000\000\264D\000\020\nE\000\000:D\000@>E\000\200\'E\000@\202D\000\000%E\000 \216D\000\200WD\000\000\226D\000@5E\000\340\003E\000\000vD\000\000\\E\000\200\362D\000\360\'E\000\000\356D\000\200\355D\000`\365D\000\000aD\000\300\250D\000\3409E\000\360\nE\000\240\371D\000\310\206E\000`\246D\000@\034E\000\000\026E\000\000HD\000`\302D\000\300IE\0000\007E\000\2601E\000\220\022E\000\200\257D\000\220HE\000\260tE\000\000\000\000\000@fD\000@=D\000\000\377D\000@\317D\000\000\317D\000@\203D\000\000\234D\000`\212D\000`\265D\000@\262D\000\220XE\000 )E\000\200+E\000P!E\000\200\265D\000`\261D\000\3005D\000\200ED\000\320\204E\000\300\255D\000\300\312D\000P\'E\000\340\344D\000\200\204D\000`\371E\000\300\301D\0008\201E\000`\275D\000\300MD\000\000\245D\000\200\367D\000\240\314E\000\240bE\000@\355D\000 \032E\000\240\025E\000@\340D\000\000 E\000\000\354D\000p\024E\000\000\026F\000\000qD\000\200\"E\000 \200D\000 \233D\000\000\275D\000\000\233D\000\300\357D\000\000\314D\000\200VD\000 \217E\000\200TE\000\000\276D\000\240\036E\000\300\320D\000\220)E\000 \367D\000\300\256D\000@pD\000`\211D\0000\216F\000 \246D\000\000\316D\000\000\341D\000\000#E\000\200VD\000\000\365D\000\240\375D\000\200\200D\0000)E\000\200kD\000\000\317D\000\200\267D\000\000CD\000 \306D\000\260)E\000@\232D\000\000\264D\000\360%E\000p\014E\000 \374D\000\000uD\000\340\024E\000\000RD\000\300\033D\000\300}D\000\000\250D\000`|E\000\000\244D\000@\272D\000\000\014E\000\200\nE\000\020\nE\000\2600E\000\300\231D\000\350\312E\000@\377D\000\000\264D\000\340\316D\000\000\322D\0000rF\000\360&E\000\2409F\000\300(E\000`\025E\000\240\363D\000`\371D\000\340\303D\000`\206E\000\340\016E\000\240%E\000@\301D\000\000\000\000\000\000\207D\000\000ZD\000\200\355D\0000>E\000\200\273D\000\000\000\000\000 \223D\000`\237D\000\000\311D\000\340\331D\000\200HE\0000\tE\000\000\242D\000 \213D\000\200\"D\000\000\337D\000`\253D\000\000\306D\000p\005E\000\330\347E\000\340AE\0000LE\000\000/D\000 \253D\000`8E\000\200&E\000`\331D\000\000\000\000\000 \262D\000@\003E\000\000\000\000\000 \305D\000`\334D\000\3005D\000\200\266D\000@\021E\000\0007D\000\000wD\000 ME\000\000\315D\000\320\023E\000\300\332D\000\360WE\000\000yD\000\0000D\000`\365D\000\000\000\000\000\200pD\000@\203E\000\340\230D\000\260\014E\000\240\273D\000\000rD\000\300vD\000\320QE\000\030\354E\000`\363D\000\000\202D\000p\016E\000 \262D\000\340\341D\000\240\304D\000 2E\000\200\004E\000@\342D\000\200\031D\000\000fD\000\300\327D\000\200\221D\000\340tE\000\300JE\000\300SD\000@$D\000\240\002E\000\000\226D\000\200@D\000\000\341D\000\300\234D\000\200\225D\000\000\372D\000\300YD\000\000\000\000\000\320%E\000 \257D\000\340\250D\000\000\233D\000\200\321D\000\240\304D\000\3002E\000\300\364D\000`\362D\000\000\335D\000 \233D\000\000\000\000\000``F\000 \354D\000\220/E\000\300\024E\000@\003E\000\200\350D\000\240oE\000\260\254E\000\300|D\000\340\315E\000\340\244D\000\000\214D\000\000(D\000\0003E\000\000\234D\000`\006E\000\000\030D\000\000\250D\000@\265E\000@\347D\000\200\\D\000\000\233D\000 \313D\000@\253D\000`\320D\000\220vE\000\000\204D\000\000\214D\000\200}D\000\0009E\000\200SE\000\200\033D\000\300\203D\000`\256D\000\000TD\000\000\306D\000`\254D\000\240?E\000@\347D\000\300\350D\000\000eD\000ppE\000\000\266D\000`\206D\000\300bD\000\340\370D\000\000ZD\000\200\225D\000`\257D\000@\335D\000\200dD\000\000RD\000 \201D\000\200\"E\000\320jE\000\240\311D\000\200\202D\000@\331D\000\200iD\000\340\226D\000\200fD\000\0009E\000\000nD\0000;E\000`\202D\000\000SD\000\200\263D\000\300\251D\000`\214D\000\220\216E\000\200\326D\000 \033E\000\360\013E\000@4D\000 \237D\000\020xE\000`tE\000\200\031D\000\360\\E\000@\332D\000\240-E\000\000\264D\000\300\353D\000\200\"E\000\200\246D\000\260oE\0000\032E\000\000\257E\000\200\"D\000`\310D\000\200\325E\000\300\375D\000\300kE\000\300\215D\000\220\035E\000\340\230D\000\000\325D\000\300MD\000\340\215D\000@\003E\000\200\273D\000\260DE\000\234\250F\000\340\212D\000\000\250D\000\000\215D\000`{E\000\300\003E\000@\322D\000\000\000\000\000\020#E\000P\026E\000 \205D\000\200\277D\000\030\234E\000\220\037E\000\000mD\000\200}D\000\000\000\000\000\200\311D\000\200\315D\000\260\021E\000@\216D\000`3E\000\340\355D\000\200hD\000\200\216D\000@\361D\000\000|D\000\000\242D\000@_D\000\260\007E\000\340\253E\000\200\222D\000\020\035E\000\300\214D\000@)D\000\000zD\000\360\017E\000`\360D\000\300]E\000@\234E\000\000\240D\000\340\274D\000\000gD\000@VD\000\320XE\000\300\022D\000\220!E\000\200wD\000\300\264D\000\340\027E\000\200{D\000\000TD\000\000*D\000 \272D\000\000\250D\000\300\212D\000\200VD\000\200\256D\000\000\246D\000@\007D\000\000\000\000\000\340\314D\000\000\000\000\000\340\024E\000\000\216D\000\240\324D\0008\244E\000@<D\000@hD\000\300\240D\000`\266D\000@`D\000\000kD\000@`D\000@\270D\000@\214D\000\340\200D\000\000zD\000\200\360D\000\000uD\000 \251D\000@\317D\000\200YD\000p\025E\000\240\222D\000\340\330D\000\260sE\000 \306D\000\200\300D\000\000\'E\000@\315D\000\200\004E\000\000WD\000\000\223D\000`\242D\000\340\001E\000\000\007D\000\200\277D\000@\246D\000\000\332D\000\320\000E\000\300\332D\000\200\024E\000\200\221D\000\340\225D\000\000vD\000\000\233D\000\300\332D\000\220\036E\000\200VD\000\240|E\000\000\313D\000@\273D\000\000\306D\000@iD\000\000PD\000\200\214D\000@\003E\000\300wD\000\360\223E\000\020\234E\000\200\326D\000\000\263D\000\200\222E\000\000\305D\000\200mD\000\000\000\000\000\340\210D\000\270\316E\000`\330D\000\000\000\000\000X\226E\000`\021E\000\340\232D\000@\003E\000`\022E\000 \242D\000\000\264D\000 \232D\000\000\277D\000\200\305D\000\200\246D\000\340\217D\000\200\224D\000\240\241D\000ptE\000\200\355D\000\320\261E\000\200[D\000\000\226D\000\200\322D\000\000\000\000\000\000\314D\000\000\214D\000\340\314D\000\350\203E\000`SE\000\240\tE\000\220\006E\000\000\264D\000\300\231D\000@0E\000`\356D\000@\246D\000\300\313D\000\340\345D\000\200\242D\000\000\177D\000\000\341D\000\000\264D\000`\321D\000\000/E\000\220\013E\000\300\240D\000`\003E\000`\224D\000\200\230D\000`\232D\000\000\257D\000@RD\000\200\257D\000\260SE\000\000\201D\000\200#D\000@\270D\000@^D\000\000{D\000\240\313D\000\200\265D\000@\370D\000 YE\000\000\022E\000@\232D\000\0005D\000\240\224D\000\340\242D\000@\032D\000H\000F\0000LE\000\000\002E\000\000\264D\000\000\303D\000\000\000\000\000\340pE\000\200\254D\000\200\253D\000\000\004E\000\300\016E\000\240\240D\000`\275D\000\200uE\000p4E\000 \326D\000\300\024E\000 ,E\000\200\323D\000\340\006E\000@\274D\000`\320D\000P\203E\000\000\346D\000\240:E\000\340\332D\000\240\332D\000\200\"D\000@\203D\000\340\272D\000\020.E\000@oD\000\200\245E\000p_E\000\260\034E\000\3401E\000\020jE\000`\266D\000\000\264D\000\300\203D\000\0201E\000h\246E\000\354\251F\000@\270D\000\200ED\000\000\303D\000\350\256E\000 \013E\000\220vE\000\300|D\000P\372E\000\200JE\000\340\010E\000\000zD\000\300sD\0000\034E\000\200\237D\000\300\240D\000\340\373D\000@\370D\000 \317D\000\000zE\000\000\331D\000\020LE\000`\213D\000\000sD\000\200\314D\000@sD\000 \262D\000\000\204D\000\240\033E\000\340\220D\000\300\267D\000\200\217D\000\200\030E\000@\277D\000@\005E\000\200zD\000 \357D\000\340DE\000@\311D\000\300\217D\000\340\264D\000\200\334D\000 8E\000\340\300D\000\000\220D\000\000\341D\000\2603E\000\300\025E\000\000\033D\000\000\250D\000\000KD\000 \275D\000\200\242D\000`\323D\000 \301D\000\300\250D"
      }
    }
  }
}
node {
  name: "SparseTensor/indices"
  op: "Const"
  attr {
    key: "_output_shapes"
    value {
      list {
        shape {
          dim {
            size: 1983
          }
          dim {
            size: 2
          }
        }
      }
    }
  }
  attr {
    key: "dtype"
    value {
      type: DT_INT64
    }
  }
  attr {
    key: "value"
    value {
      tensor {
        dtype: DT_INT64
        tensor_shape {
          dim {
            size: 1983
          }
          dim {
            size: 2
          }
        }
        tensor_content: "\000\000\000\000\000\000\000\000\000\000\000\000\000\000\000\000\001\000\000\000\000\000\000\000\000\000\000\000\000\000\000\000\002\000\000\000\000\000\000\000\000\000\000\000\000\000\000\000\003\000\000\000\000\000\000\000\000\000\000\000\000\000\000\000\004\000\000\000\000\000\000\000\000\000\000\000\000\000\000\000\005\000\000\000\000\000\000\000\000\000\000\000\000\000\000\000\006\000\000\000\000\000\000\000\000\000\000\000\000\000\000\000\007\000\000\000\000\000\000\000\000\000\000\000\000\000\000\000\010\000\000\000\000\000\000\000\000\000\000\000\000\000\000\000\t\000\000\000\000\000\000\000\000\000\000\000\000\000\000\000\n\000\000\000\000\000\000\000\000\000\000\000\000\000\000\000\013\000\000\000\000\000\000\000\000\000\000\000\000\000\000\000\014\000\000\000\000\000\000\000\000\000\000\000\000\000\000\000\r\000\000\000\000\000\000\000\000\000\000\000\000\000\000\000\016\000\000\000\000\000\000\000\000\000\000\000\000\000\000\000\017\000\000\000\000\000\000\000\000\000\000\000\000\000\000\000\020\000\000\000\000\000\000\000\000\000\000\000\000\000\000\000\021\000\000\000\000\000\000\000\000\000\000\000\000\000\000\000\022\000\000\000\000\000\000\000\000\000\000\000\000\000\000\000\023\000\000\000\000\000\000\000\000\000\000\000\000\000\000\000\024\000\000\000\000\000\000\000\000\000\000\000\000\000\000\000\025\000\000\000\000\000\000\000\000\000\000\000\000\000\000\000\026\000\000\000\000\000\000\000\000\000\000\000\000\000\000\000\027\000\000\000\000\000\000\000\000\000\000\000\000\000\000\000\030\000\000\000\000\000\000\000\000\000\000\000\000\000\000\000\031\000\000\000\000\000\000\000\000\000\000\000\000\000\000\000\032\000\000\000\000\000\000\000\000\000\000\000\000\000\000\000\033\000\000\000\000\000\000\000\000\000\000\000\000\000\000\000\034\000\000\000\000\000\000\000\000\000\000\000\000\000\000\000\035\000\000\000\000\000\000\000\000\000\000\000\000\000\000\000\036\000\000\000\000\000\000\000\000\000\000\000\000\000\000\000\037\000\000\000\000\000\000\000\000\000\000\000\000\000\000\000 \000\000\000\000\000\000\000\000\000\000\000\000\000\000\000!\000\000\000\000\000\000\000\000\000\000\000\000\000\000\000\"\000\000\000\000\000\000\000\000\000\000\000\000\000\000\000#\000\000\000\000\000\000\000\000\000\000\000\000\000\000\000$\000\000\000\000\000\000\000\000\000\000\000\000\000\000\000%\000\000\000\000\000\000\000\000\000\000\000\000\000\000\000&\000\000\000\000\000\000\000\000\000\000\000\000\000\000\000\'\000\000\000\000\000\000\000\000\000\000\000\000\000\000\000(\000\000\000\000\000\000\000\000\000\000\000\000\000\000\000)\000\000\000\000\000\000\000\000\000\000\000\000\000\000\000*\000\000\000\000\000\000\000\000\000\000\000\000\000\000\000+\000\000\000\000\000\000\000\000\000\000\000\000\000\000\000,\000\000\000\000\000\000\000\000\000\000\000\000\000\000\000-\000\000\000\000\000\000\000\000\000\000\000\000\000\000\000.\000\000\000\000\000\000\000\000\000\000\000\000\000\000\000/\000\000\000\000\000\000\000\000\000\000\000\000\000\000\0000\000\000\000\000\000\000\000\000\000\000\000\000\000\000\0001\000\000\000\000\000\000\000\000\000\000\000\000\000\000\0002\000\000\000\000\000\000\000\000\000\000\000\000\000\000\0003\000\000\000\000\000\000\000\000\000\000\000\000\000\000\0004\000\000\000\000\000\000\000\000\000\000\000\000\000\000\0005\000\000\000\000\000\000\000\000\000\000\000\000\000\000\0006\000\000\000\000\000\000\000\000\000\000\000\000\000\000\0007\000\000\000\000\000\000\000\000\000\000\000\000\000\000\0008\000\000\000\000\000\000\000\000\000\000\000\000\000\000\0009\000\000\000\000\000\000\000\000\000\000\000\000\000\000\000:\000\000\000\000\000\000\000\000\000\000\000\000\000\000\000;\000\000\000\000\000\000\000\000\000\000\000\000\000\000\000<\000\000\000\000\000\000\000\000\000\000\000\000\000\000\000=\000\000\000\000\000\000\000\000\000\000\000\000\000\000\000>\000\000\000\000\000\000\000\000\000\000\000\000\000\000\000?\000\000\000\000\000\000\000\000\000\000\000\000\000\000\000@\000\000\000\000\000\000\000\000\000\000\000\000\000\000\000A\000\000\000\000\000\000\000\000\000\000\000\000\000\000\000B\000\000\000\000\000\000\000\000\000\000\000\000\000\000\000C\000\000\000\000\000\000\000\000\000\000\000\000\000\000\000D\000\000\000\000\000\000\000\000\000\000\000\000\000\000\000E\000\000\000\000\000\000\000\000\000\000\000\000\000\000\000F\000\000\000\000\000\000\000\000\000\000\000\000\000\000\000G\000\000\000\000\000\000\000\000\000\000\000\000\000\000\000H\000\000\000\000\000\000\000\000\000\000\000\000\000\000\000I\000\000\000\000\000\000\000\000\000\000\000\000\000\000\000J\000\000\000\000\000\000\000\000\000\000\000\000\000\000\000K\000\000\000\000\000\000\000\000\000\000\000\000\000\000\000L\000\000\000\000\000\000\000\000\000\000\000\000\000\000\000M\000\000\000\000\000\000\000\000\000\000\000\000\000\000\000N\000\000\000\000\000\000\000\000\000\000\000\000\000\000\000O\000\000\000\000\000\000\000\000\000\000\000\000\000\000\000P\000\000\000\000\000\000\000\000\000\000\000\000\000\000\000Q\000\000\000\000\000\000\000\000\000\000\000\000\000\000\000R\000\000\000\000\000\000\000\000\000\000\000\000\000\000\000S\000\000\000\000\000\000\000\000\000\000\000\000\000\000\000T\000\000\000\000\000\000\000\000\000\000\000\000\000\000\000U\000\000\000\000\000\000\000\000\000\000\000\000\000\000\000V\000\000\000\000\000\000\000\000\000\000\000\000\000\000\000W\000\000\000\000\000\000\000\000\000\000\000\000\000\000\000X\000\000\000\000\000\000\000\000\000\000\000\000\000\000\000Y\000\000\000\000\000\000\000\000\000\000\000\000\000\000\000Z\000\000\000\000\000\000\000\000\000\000\000\000\000\000\000[\000\000\000\000\000\000\000\000\000\000\000\000\000\000\000\\\000\000\000\000\000\000\000\000\000\000\000\000\000\000\000]\000\000\000\000\000\000\000\000\000\000\000\000\000\000\000^\000\000\000\000\000\000\000\000\000\000\000\000\000\000\000_\000\000\000\000\000\000\000\000\000\000\000\000\000\000\000`\000\000\000\000\000\000\000\000\000\000\000\000\000\000\000a\000\000\000\000\000\000\000\000\000\000\000\000\000\000\000b\000\000\000\000\000\000\000\000\000\000\000\000\000\000\000c\000\000\000\000\000\000\000\000\000\000\000\000\000\000\000d\000\000\000\000\000\000\000\000\000\000\000\000\000\000\000e\000\000\000\000\000\000\000\000\000\000\000\000\000\000\000f\000\000\000\000\000\000\000\000\000\000\000\000\000\000\000g\000\000\000\000\000\000\000\000\000\000\000\000\000\000\000h\000\000\000\000\000\000\000\000\000\000\000\000\000\000\000i\000\000\000\000\000\000\000\000\000\000\000\000\000\000\000j\000\000\000\000\000\000\000\000\000\000\000\000\000\000\000k\000\000\000\000\000\000\000\000\000\000\000\000\000\000\000l\000\000\000\000\000\000\000\000\000\000\000\000\000\000\000m\000\000\000\000\000\000\000\000\000\000\000\000\000\000\000n\000\000\000\000\000\000\000\000\000\000\000\000\000\000\000o\000\000\000\000\000\000\000\000\000\000\000\000\000\000\000p\000\000\000\000\000\000\000\000\000\000\000\000\000\000\000q\000\000\000\000\000\000\000\000\000\000\000\000\000\000\000r\000\000\000\000\000\000\000\000\000\000\000\000\000\000\000s\000\000\000\000\000\000\000\000\000\000\000\000\000\000\000t\000\000\000\000\000\000\000\000\000\000\000\000\000\000\000u\000\000\000\000\000\000\000\000\000\000\000\000\000\000\000v\000\000\000\000\000\000\000\000\000\000\000\000\000\000\000w\000\000\000\000\000\000\000\000\000\000\000\000\000\000\000x\000\000\000\000\000\000\000\000\000\000\000\000\000\000\000y\000\000\000\000\000\000\000\000\000\000\000\000\000\000\000z\000\000\000\000\000\000\000\000\000\000\000\000\000\000\000{\000\000\000\000\000\000\000\000\000\000\000\000\000\000\000|\000\000\000\000\000\000\000\000\000\000\000\000\000\000\000}\000\000\000\000\000\000\000\000\000\000\000\000\000\000\000~\000\000\000\000\000\000\000\000\000\000\000\000\000\000\000\177\000\000\000\000\000\000\000\000\000\000\000\000\000\000\000\200\000\000\000\000\000\000\000\000\000\000\000\000\000\000\000\201\000\000\000\000\000\000\000\000\000\000\000\000\000\000\000\202\000\000\000\000\000\000\000\000\000\000\000\000\000\000\000\203\000\000\000\000\000\000\000\000\000\000\000\000\000\000\000\204\000\000\000\000\000\000\000\000\000\000\000\000\000\000\000\205\000\000\000\000\000\000\000\000\000\000\000\000\000\000\000\206\000\000\000\000\000\000\000\000\000\000\000\000\000\000\000\207\000\000\000\000\000\000\000\000\000\000\000\000\000\000\000\210\000\000\000\000\000\000\000\000\000\000\000\000\000\000\000\211\000\000\000\000\000\000\000\000\000\000\000\000\000\000\000\212\000\000\000\000\000\000\000\000\000\000\000\000\000\000\000\213\000\000\000\000\000\000\000\000\000\000\000\000\000\000\000\214\000\000\000\000\000\000\000\000\000\000\000\000\000\000\000\215\000\000\000\000\000\000\000\000\000\000\000\000\000\000\000\216\000\000\000\000\000\000\000\000\000\000\000\000\000\000\000\217\000\000\000\000\000\000\000\000\000\000\000\000\000\000\000\220\000\000\000\000\000\000\000\000\000\000\000\000\000\000\000\221\000\000\000\000\000\000\000\000\000\000\000\000\000\000\000\222\000\000\000\000\000\000\000\000\000\000\000\000\000\000\000\223\000\000\000\000\000\000\000\000\000\000\000\000\000\000\000\224\000\000\000\000\000\000\000\000\000\000\000\000\000\000\000\225\000\000\000\000\000\000\000\000\000\000\000\000\000\000\000\226\000\000\000\000\000\000\000\000\000\000\000\000\000\000\000\227\000\000\000\000\000\000\000\000\000\000\000\000\000\000\000\230\000\000\000\000\000\000\000\000\000\000\000\000\000\000\000\231\000\000\000\000\000\000\000\000\000\000\000\000\000\000\000\232\000\000\000\000\000\000\000\000\000\000\000\000\000\000\000\233\000\000\000\000\000\000\000\000\000\000\000\000\000\000\000\234\000\000\000\000\000\000\000\000\000\000\000\000\000\000\000\235\000\000\000\000\000\000\000\000\000\000\000\000\000\000\000\236\000\000\000\000\000\000\000\000\000\000\000\000\000\000\000\237\000\000\000\000\000\000\000\000\000\000\000\000\000\000\000\240\000\000\000\000\000\000\000\000\000\000\000\000\000\000\000\241\000\000\000\000\000\000\000\000\000\000\000\000\000\000\000\242\000\000\000\000\000\000\000\000\000\000\000\000\000\000\000\243\000\000\000\000\000\000\000\000\000\000\000\000\000\000\000\244\000\000\000\000\000\000\000\000\000\000\000\000\000\000\000\245\000\000\000\000\000\000\000\000\000\000\000\000\000\000\000\246\000\000\000\000\000\000\000\000\000\000\000\000\000\000\000\247\000\000\000\000\000\000\000\000\000\000\000\000\000\000\000\250\000\000\000\000\000\000\000\000\000\000\000\000\000\000\000\251\000\000\000\000\000\000\000\000\000\000\000\000\000\000\000\252\000\000\000\000\000\000\000\000\000\000\000\000\000\000\000\253\000\000\000\000\000\000\000\000\000\000\000\000\000\000\000\254\000\000\000\000\000\000\000\000\000\000\000\000\000\000\000\255\000\000\000\000\000\000\000\000\000\000\000\000\000\000\000\256\000\000\000\000\000\000\000\000\000\000\000\000\000\000\000\257\000\000\000\000\000\000\000\000\000\000\000\000\000\000\000\260\000\000\000\000\000\000\000\000\000\000\000\000\000\000\000\261\000\000\000\000\000\000\000\000\000\000\000\000\000\000\000\262\000\000\000\000\000\000\000\000\000\000\000\000\000\000\000\263\000\000\000\000\000\000\000\000\000\000\000\000\000\000\000\264\000\000\000\000\000\000\000\000\000\000\000\000\000\000\000\265\000\000\000\000\000\000\000\000\000\000\000\000\000\000\000\266\000\000\000\000\000\000\000\000\000\000\000\000\000\000\000\267\000\000\000\000\000\000\000\000\000\000\000\000\000\000\000\270\000\000\000\000\000\000\000\000\000\000\000\000\000\000\000\271\000\000\000\000\000\000\000\000\000\000\000\000\000\000\000\272\000\000\000\000\000\000\000\000\000\000\000\000\000\000\000\273\000\000\000\000\000\000\000\000\000\000\000\000\000\000\000\274\000\000\000\000\000\000\000\000\000\000\000\000\000\000\000\275\000\000\000\000\000\000\000\000\000\000\000\000\000\000\000\276\000\000\000\000\000\000\000\000\000\000\000\000\000\000\000\277\000\000\000\000\000\000\000\000\000\000\000\000\000\000\000\300\000\000\000\000\000\000\000\000\000\000\000\000\000\000\000\301\000\000\000\000\000\000\000\000\000\000\000\000\000\000\000\302\000\000\000\000\000\000\000\000\000\000\000\000\000\000\000\303\000\000\000\000\000\000\000\000\000\000\000\000\000\000\000\304\000\000\000\000\000\000\000\000\000\000\000\000\000\000\000\305\000\000\000\000\000\000\000\000\000\000\000\000\000\000\000\306\000\000\000\000\000\000\000\000\000\000\000\000\000\000\000\307\000\000\000\000\000\000\000\000\000\000\000\000\000\000\000\310\000\000\000\000\000\000\000\000\000\000\000\000\000\000\000\311\000\000\000\000\000\000\000\000\000\000\000\000\000\000\000\312\000\000\000\000\000\000\000\000\000\000\000\000\000\000\000\313\000\000\000\000\000\000\000\000\000\000\000\000\000\000\000\314\000\000\000\000\000\000\000\000\000\000\000\000\000\000\000\315\000\000\000\000\000\000\000\000\000\000\000\000\000\000\000\316\000\000\000\000\000\000\000\000\000\000\000\000\000\000\000\317\000\000\000\000\000\000\000\000\000\000\000\000\000\000\000\320\000\000\000\000\000\000\000\000\000\000\000\000\000\000\000\321\000\000\000\000\000\000\000\000\000\000\000\000\000\000\000\322\000\000\000\000\000\000\000\000\000\000\000\000\000\000\000\323\000\000\000\000\000\000\000\000\000\000\000\000\000\000\000\324\000\000\000\000\000\000\000\000\000\000\000\000\000\000\000\325\000\000\000\000\000\000\000\000\000\000\000\000\000\000\000\326\000\000\000\000\000\000\000\000\000\000\000\000\000\000\000\327\000\000\000\000\000\000\000\000\000\000\000\000\000\000\000\330\000\000\000\000\000\000\000\000\000\000\000\000\000\000\000\331\000\000\000\000\000\000\000\000\000\000\000\000\000\000\000\332\000\000\000\000\000\000\000\000\000\000\000\000\000\000\000\333\000\000\000\000\000\000\000\000\000\000\000\000\000\000\000\334\000\000\000\000\000\000\000\000\000\000\000\000\000\000\000\335\000\000\000\000\000\000\000\000\000\000\000\000\000\000\000\336\000\000\000\000\000\000\000\000\000\000\000\000\000\000\000\337\000\000\000\000\000\000\000\000\000\000\000\000\000\000\000\340\000\000\000\000\000\000\000\000\000\000\000\000\000\000\000\341\000\000\000\000\000\000\000\000\000\000\000\000\000\000\000\342\000\000\000\000\000\000\000\000\000\000\000\000\000\000\000\343\000\000\000\000\000\000\000\000\000\000\000\000\000\000\000\344\000\000\000\000\000\000\000\000\000\000\000\000\000\000\000\345\000\000\000\000\000\000\000\000\000\000\000\000\000\000\000\346\000\000\000\000\000\000\000\000\000\000\000\000\000\000\000\347\000\000\000\000\000\000\000\000\000\000\000\000\000\000\000\350\000\000\000\000\000\000\000\000\000\000\000\000\000\000\000\351\000\000\000\000\000\000\000\000\000\000\000\000\000\000\000\352\000\000\000\000\000\000\000\000\000\000\000\000\000\000\000\353\000\000\000\000\000\000\000\000\000\000\000\000\000\000\000\354\000\000\000\000\000\000\000\000\000\000\000\000\000\000\000\355\000\000\000\000\000\000\000\000\000\000\000\000\000\000\000\356\000\000\000\000\000\000\000\000\000\000\000\000\000\000\000\357\000\000\000\000\000\000\000\000\000\000\000\000\000\000\000\360\000\000\000\000\000\000\000\000\000\000\000\000\000\000\000\361\000\000\000\000\000\000\000\000\000\000\000\000\000\000\000\362\000\000\000\000\000\000\000\000\000\000\000\000\000\000\000\363\000\000\000\000\000\000\000\000\000\000\000\000\000\000\000\364\000\000\000\000\000\000\000\000\000\000\000\000\000\000\000\365\000\000\000\000\000\000\000\000\000\000\000\000\000\000\000\366\000\000\000\000\000\000\000\000\000\000\000\000\000\000\000\367\000\000\000\000\000\000\000\000\000\000\000\000\000\000\000\370\000\000\000\000\000\000\000\000\000\000\000\000\000\000\000\371\000\000\000\000\000\000\000\000\000\000\000\000\000\000\000\372\000\000\000\000\000\000\000\000\000\000\000\000\000\000\000\373\000\000\000\000\000\000\000\000\000\000\000\000\000\000\000\374\000\000\000\000\000\000\000\000\000\000\000\000\000\000\000\375\000\000\000\000\000\000\000\000\000\000\000\000\000\000\000\376\000\000\000\000\000\000\000\000\000\000\000\000\000\000\000\377\000\000\000\000\000\000\000\000\000\000\000\000\000\000\000\000\001\000\000\000\000\000\000\000\000\000\000\000\000\000\000\001\001\000\000\000\000\000\000\000\000\000\000\000\000\000\000\002\001\000\000\000\000\000\000\000\000\000\000\000\000\000\000\003\001\000\000\000\000\000\000\000\000\000\000\000\000\000\000\004\001\000\000\000\000\000\000\000\000\000\000\000\000\000\000\005\001\000\000\000\000\000\000\000\000\000\000\000\000\000\000\006\001\000\000\000\000\000\000\000\000\000\000\000\000\000\000\007\001\000\000\000\000\000\000\000\000\000\000\000\000\000\000\010\001\000\000\000\000\000\000\000\000\000\000\000\000\000\000\t\001\000\000\000\000\000\000\000\000\000\000\000\000\000\000\n\001\000\000\000\000\000\000\000\000\000\000\000\000\000\000\013\001\000\000\000\000\000\000\000\000\000\000\000\000\000\000\014\001\000\000\000\000\000\000\000\000\000\000\000\000\000\000\r\001\000\000\000\000\000\000\000\000\000\000\000\000\000\000\016\001\000\000\000\000\000\000\000\000\000\000\000\000\000\000\017\001\000\000\000\000\000\000\000\000\000\000\000\000\000\000\020\001\000\000\000\000\000\000\000\000\000\000\000\000\000\000\021\001\000\000\000\000\000\000\000\000\000\000\000\000\000\000\022\001\000\000\000\000\000\000\000\000\000\000\000\000\000\000\023\001\000\000\000\000\000\000\000\000\000\000\000\000\000\000\024\001\000\000\000\000\000\000\000\000\000\000\000\000\000\000\025\001\000\000\000\000\000\000\000\000\000\000\000\000\000\000\026\001\000\000\000\000\000\000\000\000\000\000\000\000\000\000\027\001\000\000\000\000\000\000\000\000\000\000\000\000\000\000\030\001\000\000\000\000\000\000\000\000\000\000\000\000\000\000\031\001\000\000\000\000\000\000\000\000\000\000\000\000\000\000\032\001\000\000\000\000\000\000\000\000\000\000\000\000\000\000\033\001\000\000\000\000\000\000\000\000\000\000\000\000\000\000\034\001\000\000\000\000\000\000\000\000\000\000\000\000\000\000\035\001\000\000\000\000\000\000\000\000\000\000\000\000\000\000\036\001\000\000\000\000\000\000\000\000\000\000\000\000\000\000\037\001\000\000\000\000\000\000\000\000\000\000\000\000\000\000 \001\000\000\000\000\000\000\000\000\000\000\000\000\000\000!\001\000\000\000\000\000\000\000\000\000\000\000\000\000\000\"\001\000\000\000\000\000\000\000\000\000\000\000\000\000\000#\001\000\000\000\000\000\000\000\000\000\000\000\000\000\000$\001\000\000\000\000\000\000\000\000\000\000\000\000\000\000%\001\000\000\000\000\000\000\000\000\000\000\000\000\000\000&\001\000\000\000\000\000\000\000\000\000\000\000\000\000\000\'\001\000\000\000\000\000\000\000\000\000\000\000\000\000\000(\001\000\000\000\000\000\000\000\000\000\000\000\000\000\000)\001\000\000\000\000\000\000\000\000\000\000\000\000\000\000*\001\000\000\000\000\000\000\000\000\000\000\000\000\000\000+\001\000\000\000\000\000\000\000\000\000\000\000\000\000\000,